#include "har_ign_data.h"

ai_handle ai_har_ign_data_weights_get(void)
{

  AI_ALIGNED(4)
  static const ai_u8 s_har_ign_weights[ 12256 ] = {
    0x29, 0xd3, 0xee, 0x3c, 0x1d, 0x93, 0x72, 0xbc, 0xff, 0xc7,
    0x1d, 0xbd, 0xc4, 0x7d, 0xc8, 0xbc, 0xea, 0x82, 0xa7, 0xbb,
    0x11, 0xf0, 0xf7, 0x3b, 0xf8, 0x73, 0xfe, 0xbd, 0x49, 0x8d,
    0x64, 0x3c, 0x1a, 0xd4, 0x40, 0xbc, 0x70, 0x8b, 0xd3, 0x3c,
    0x9e, 0x5c, 0x53, 0x3d, 0x98, 0x9a, 0x78, 0x3d, 0x6a, 0x1f,
    0x32, 0x3d, 0x38, 0xfd, 0xdf, 0x3c, 0xe9, 0x09, 0xfb, 0x3c,
    0x61, 0xfb, 0x67, 0x3d, 0x39, 0xff, 0xf4, 0x3d, 0x2f, 0xf8,
    0x20, 0xbc, 0x2a, 0x8c, 0x6f, 0xbb, 0xca, 0xee, 0xaa, 0xbd,
    0x84, 0xa6, 0xa7, 0xbb, 0x77, 0x00, 0x3a, 0x3d, 0x64, 0x35,
    0x0d, 0xbd, 0xa0, 0x3d, 0x57, 0xbd, 0x10, 0xef, 0x23, 0x3d,
    0x5e, 0x47, 0xb3, 0xbc, 0xbf, 0x99, 0xd2, 0xbb, 0xb2, 0xbb,
    0xb4, 0xbb, 0xa7, 0x08, 0xe2, 0x3c, 0xd9, 0xc2, 0xfb, 0x3b,
    0x6c, 0xdc, 0xb8, 0x3c, 0xd6, 0xd8, 0x74, 0xbb, 0xc1, 0x55,
    0x22, 0x3c, 0xa5, 0x35, 0x1a, 0x3d, 0xc6, 0xda, 0x1e, 0x3d,
    0xf6, 0x73, 0x2d, 0x3d, 0x29, 0x90, 0x49, 0x3d, 0x8a, 0xbb,
    0x78, 0x3c, 0x17, 0x4d, 0x6d, 0x3c, 0xd0, 0xbf, 0x10, 0x3c,
    0x79, 0xd9, 0x8e, 0xbd, 0x00, 0x4a, 0xa9, 0xbd, 0x9d, 0x11,
    0xd7, 0xbd, 0x23, 0xf6, 0xe0, 0xbc, 0x28, 0xd9, 0xcf, 0xbc,
    0xff, 0xb2, 0x53, 0x3d, 0x8b, 0x7f, 0x26, 0xbd, 0x79, 0xdf,
    0x35, 0xbd, 0x45, 0x60, 0xd0, 0xbd, 0x08, 0xc8, 0x95, 0xbd,
    0x25, 0x02, 0x06, 0xbc, 0x7f, 0x6c, 0x81, 0x3b, 0xdd, 0x83,
    0x12, 0xbe, 0xab, 0x74, 0xaf, 0x3c, 0x12, 0x65, 0x58, 0xbd,
    0x99, 0xb2, 0x23, 0x3c, 0x03, 0xd0, 0x24, 0xbc, 0xea, 0xbb,
    0xd0, 0x3c, 0x74, 0xa0, 0x18, 0x3d, 0xd7, 0x9c, 0x35, 0x3d,
    0x10, 0x1b, 0x96, 0x3c, 0xe7, 0xd6, 0x24, 0x3d, 0x52, 0xe6,
    0x1e, 0x3d, 0x1c, 0x9c, 0xaa, 0x3c, 0xa4, 0x65, 0xa7, 0x3a,
    0x76, 0x34, 0x94, 0xbc, 0xce, 0xd5, 0xaf, 0x3a, 0xd7, 0x63,
    0xe8, 0x3a, 0x1b, 0x68, 0xc8, 0xbc, 0x30, 0x2e, 0xc3, 0xbc,
    0xac, 0x2f, 0x87, 0xba, 0xfc, 0x68, 0xda, 0xbc, 0x2e, 0xb0,
    0x4e, 0xbd, 0x8b, 0xd1, 0xb6, 0xbc, 0x14, 0x5c, 0x96, 0xbc,
    0x34, 0xda, 0x9e, 0xbc, 0x22, 0x35, 0x72, 0x3d, 0x2e, 0x66,
    0x8e, 0x3d, 0x90, 0x62, 0x56, 0x3d, 0x18, 0x4b, 0x37, 0xbd,
    0xfd, 0x6d, 0x19, 0x3d, 0x06, 0xec, 0xe0, 0x3c, 0x61, 0xb7,
    0x18, 0x3c, 0x69, 0x3c, 0xdd, 0x3c, 0x5c, 0xc7, 0x5c, 0x3d,
    0xc3, 0x32, 0x54, 0x3d, 0x73, 0x78, 0x76, 0x3d, 0xfc, 0xc8,
    0x0e, 0x3d, 0x7e, 0x57, 0xae, 0x3a, 0x51, 0x06, 0x9f, 0x3b,
    0x3c, 0xa1, 0x95, 0xbc, 0x3e, 0xcd, 0xbe, 0xbd, 0x64, 0x2b,
    0xfd, 0xbd, 0xc1, 0x5c, 0x08, 0xbd, 0x5c, 0xd7, 0xdd, 0xbc,
    0x9c, 0x68, 0x95, 0x3c, 0x01, 0xe5, 0xd1, 0x3b, 0x58, 0x35,
    0xc1, 0x3a, 0x26, 0x22, 0x0a, 0xbc, 0x1a, 0x46, 0x5c, 0x3c,
    0x0c, 0x12, 0xe2, 0x3c, 0x72, 0x54, 0xf0, 0xbc, 0xd0, 0xcc,
    0x68, 0xbd, 0xd2, 0x87, 0x2a, 0x3d, 0xcb, 0x8b, 0x35, 0x3d,
    0x00, 0x46, 0x13, 0xb6, 0x39, 0x96, 0xd1, 0x3c, 0xd8, 0x69,
    0x2b, 0x3c, 0x03, 0x72, 0x06, 0xbd, 0x48, 0x0b, 0xbd, 0xbb,
    0x55, 0x33, 0xa8, 0x3c, 0x22, 0xb8, 0x06, 0xbc, 0x31, 0x45,
    0x6e, 0x3a, 0x96, 0xc6, 0x02, 0x3d, 0xb5, 0x63, 0x96, 0x3d,
    0xf9, 0x2d, 0x98, 0x3d, 0x4a, 0x43, 0xec, 0x3a, 0xdf, 0x75,
    0x3e, 0xbd, 0xb6, 0xff, 0x78, 0xbd, 0xef, 0x03, 0xf3, 0xbc,
    0x47, 0xfe, 0x96, 0x3b, 0x66, 0x91, 0x44, 0x3c, 0x9b, 0x05,
    0x31, 0x3d, 0x97, 0xf9, 0x69, 0x3d, 0xa9, 0x14, 0xf7, 0x3d,
    0xed, 0x40, 0x5e, 0x3d, 0x5b, 0x2e, 0x21, 0x3d, 0x8d, 0x9c,
    0x3f, 0xbd, 0x5c, 0xf5, 0x84, 0xbd, 0x9f, 0x29, 0x62, 0x3c,
    0xff, 0x4f, 0x5d, 0xbd, 0x3c, 0x00, 0xb5, 0x3d, 0x35, 0xbf,
    0x34, 0x3c, 0x69, 0xbe, 0xa2, 0x3b, 0x90, 0xb5, 0xf5, 0xbc,
    0xd0, 0xf1, 0xff, 0xbc, 0xe0, 0xa1, 0xa8, 0xbc, 0x6a, 0x0f,
    0x36, 0xbd, 0x41, 0x00, 0x9b, 0xbb, 0x81, 0x4f, 0x02, 0x3e,
    0x2c, 0x3b, 0xce, 0xbd, 0xfc, 0x67, 0xb0, 0xbb, 0x99, 0x82,
    0x0b, 0xbd, 0x72, 0xfa, 0xf7, 0xbc, 0xba, 0x47, 0x4a, 0x3d,
    0x9b, 0x32, 0x72, 0x3c, 0x99, 0xc2, 0x81, 0xbd, 0x27, 0x99,
    0xc9, 0xbc, 0xe6, 0x4d, 0x48, 0x3c, 0x99, 0x6b, 0x57, 0xbd,
    0x96, 0x26, 0xb3, 0xbc, 0xc4, 0x78, 0xdb, 0x3d, 0x1b, 0x8c,
    0x0b, 0x3d, 0x1e, 0xc5, 0x7b, 0x3d, 0x7a, 0x5c, 0x10, 0xbd,
    0x6a, 0x92, 0x52, 0x3d, 0xc8, 0x3c, 0x28, 0x3d, 0x23, 0xa3,
    0xa7, 0xbc, 0x90, 0x4d, 0x88, 0x3c, 0x60, 0x7e, 0x3c, 0x3d,
    0xb6, 0xe1, 0x65, 0x3d, 0xbc, 0xc1, 0x08, 0x3e, 0x53, 0x2b,
    0xe1, 0x3d, 0x39, 0xcf, 0x53, 0x3d, 0xcb, 0xdc, 0xdd, 0x3d,
    0x40, 0xc1, 0x83, 0xbc, 0x7e, 0x5c, 0x47, 0x3d, 0xb8, 0x9a,
    0x15, 0xbd, 0x20, 0x04, 0xa1, 0xbc, 0x33, 0x9a, 0x1d, 0xbd,
    0xd8, 0xc4, 0x06, 0xbd, 0xeb, 0xe0, 0x4b, 0xbd, 0x47, 0x6b,
    0xb6, 0xbd, 0xda, 0x49, 0x23, 0xbd, 0xb4, 0x93, 0x7b, 0x3c,
    0x44, 0x40, 0x05, 0x3d, 0x07, 0xfe, 0xf3, 0x3d, 0x3f, 0x1c,
    0x29, 0x3d, 0xc7, 0xb9, 0xf5, 0x3c, 0xee, 0x7f, 0xb7, 0x3d,
    0xe1, 0x90, 0x89, 0x3d, 0xfa, 0xa8, 0x15, 0xbd, 0xe7, 0x59,
    0x25, 0xbd, 0xdb, 0xbb, 0x9b, 0xbd, 0x4e, 0xda, 0xd0, 0xbc,
    0x7f, 0xff, 0xbe, 0xbc, 0x65, 0x6d, 0xf5, 0xbc, 0xd0, 0x4f,
    0x4f, 0xbc, 0x44, 0xe2, 0x82, 0x3d, 0x85, 0xa9, 0xbb, 0x3d,
    0xb8, 0xb9, 0x8f, 0x3d, 0xcb, 0xdb, 0xef, 0xbb, 0xb6, 0xb0,
    0x80, 0xbd, 0x28, 0x76, 0x94, 0xbc, 0x0c, 0x45, 0x34, 0xbd,
    0x53, 0xc6, 0x55, 0xbd, 0x03, 0xd8, 0x8e, 0xbd, 0x1e, 0x85,
    0x89, 0x3b, 0x96, 0x8f, 0x89, 0x3d, 0x85, 0xfc, 0x29, 0xbc,
    0xce, 0x25, 0x81, 0x3c, 0xe9, 0x8e, 0xe2, 0xbd, 0x4d, 0x80,
    0xa8, 0x3c, 0xef, 0x59, 0x46, 0x3c, 0xb0, 0x3e, 0x2d, 0xbd,
    0xb7, 0x18, 0x38, 0xbd, 0xbb, 0xab, 0x44, 0xbd, 0x1e, 0x28,
    0x30, 0xbd, 0xd4, 0x78, 0x23, 0xbe, 0x9f, 0x90, 0x39, 0xbd,
    0xb1, 0x5c, 0x53, 0xbc, 0x43, 0x66, 0xca, 0xbd, 0x5a, 0x79,
    0x5e, 0xbc, 0xe4, 0x72, 0x1d, 0xbd, 0x76, 0x5d, 0x80, 0xbd,
    0x84, 0xd5, 0x76, 0xbd, 0x0c, 0xf2, 0x85, 0xbd, 0x3d, 0xa3,
    0x72, 0xbd, 0x8a, 0x7d, 0x85, 0xbd, 0x11, 0x39, 0x3d, 0xbd,
    0x3f, 0x46, 0x25, 0xbd, 0x19, 0xe9, 0x8a, 0xbd, 0xbc, 0x5b,
    0x44, 0xbd, 0xc2, 0x37, 0xa4, 0xbd, 0xc0, 0x23, 0x94, 0x3d,
    0x7a, 0x15, 0xee, 0x3d, 0x11, 0x06, 0xeb, 0x3d, 0x4b, 0xf5,
    0x00, 0x3e, 0x4b, 0x5e, 0x81, 0x3d, 0x38, 0xe8, 0xf3, 0x3d,
    0x55, 0xbf, 0xe4, 0x3c, 0x96, 0x6a, 0xc4, 0xbc, 0x56, 0x60,
    0xbf, 0x3d, 0x1f, 0x48, 0xb3, 0x3d, 0xaa, 0xf9, 0x04, 0x3d,
    0x03, 0xc5, 0x01, 0xbd, 0xfa, 0xea, 0xa6, 0x3d, 0xf1, 0xf1,
    0x4b, 0xbc, 0x68, 0x62, 0x11, 0xbc, 0x1c, 0x5d, 0x8a, 0xbc,
    0x5c, 0x14, 0x91, 0xbc, 0x75, 0x9d, 0x21, 0xbd, 0xa2, 0x3c,
    0x64, 0xbd, 0x4d, 0xbd, 0x61, 0xbd, 0x11, 0x5c, 0xa2, 0xbd,
    0xc3, 0x75, 0x30, 0xbd, 0x3c, 0xb8, 0x59, 0xbd, 0x3b, 0x53,
    0x4c, 0xbd, 0x2c, 0x8a, 0x01, 0xbd, 0xc8, 0x93, 0xe8, 0xbc,
    0x6c, 0xb2, 0x3c, 0xbc, 0xa0, 0x20, 0xd6, 0xbc, 0x59, 0xfc,
    0x22, 0xbd, 0x42, 0x4a, 0x30, 0xbd, 0xf4, 0x91, 0xdd, 0xbc,
    0x8f, 0x2d, 0x17, 0xbd, 0x4b, 0xd0, 0x2f, 0x3d, 0x23, 0xe8,
    0xaa, 0x3d, 0xc0, 0xb1, 0x83, 0x3d, 0xaa, 0x82, 0x4a, 0xbd,
    0xf3, 0x6a, 0x3a, 0xbd, 0xc3, 0x52, 0xda, 0xbc, 0xb9, 0xb9,
    0x00, 0x3d, 0x98, 0xe7, 0x4b, 0xbd, 0x99, 0x7f, 0x9b, 0x3d,
    0x98, 0x79, 0x3e, 0xbc, 0xcb, 0x70, 0xd5, 0x3b, 0xf1, 0x8b,
    0x57, 0xbc, 0x10, 0x29, 0xd0, 0xbc, 0xa0, 0xd3, 0x3f, 0xbc,
    0x89, 0x4a, 0xa0, 0x3c, 0x1a, 0x66, 0x7c, 0x3d, 0x91, 0xd1,
    0xd3, 0x3d, 0x32, 0x9d, 0x25, 0xbd, 0xd1, 0xa0, 0xc9, 0x3b,
    0xec, 0x85, 0xc5, 0xbc, 0x3c, 0xc2, 0xf2, 0x3c, 0x02, 0x5b,
    0x73, 0xbc, 0xdb, 0x4f, 0xa6, 0x3c, 0x9b, 0x3a, 0x41, 0xbd,
    0x08, 0xaa, 0x6c, 0x3d, 0xa2, 0x8d, 0x4f, 0xbd, 0xe4, 0xc2,
    0x33, 0x3d, 0x2f, 0xe6, 0x31, 0xbb, 0x4c, 0xb5, 0xd7, 0xbc,
    0xc6, 0xc8, 0x13, 0x3d, 0x45, 0xe4, 0xd4, 0x3c, 0xcc, 0x99,
    0x2c, 0x3d, 0x6c, 0x20, 0xb6, 0x3d, 0xf4, 0xc3, 0x50, 0xbc,
    0x67, 0xa1, 0xe6, 0x3d, 0x0b, 0x7e, 0x62, 0x3d, 0x6a, 0x97,
    0x0b, 0x3d, 0xb7, 0x33, 0xef, 0x3d, 0x78, 0xfd, 0x23, 0x3d,
    0x62, 0xf0, 0x12, 0x3e, 0x20, 0x71, 0x7a, 0x3c, 0x5f, 0x23,
    0x8d, 0x3d, 0x4e, 0x8e, 0x32, 0x3c, 0x12, 0xb0, 0x13, 0xbd,
    0x3c, 0x90, 0x59, 0x3d, 0x89, 0x52, 0x49, 0xbd, 0xb4, 0x00,
    0x0c, 0x3d, 0x00, 0xbc, 0xba, 0xbc, 0x9b, 0x1f, 0xe6, 0xbc,
    0xef, 0x51, 0x57, 0xbb, 0x54, 0xaa, 0x88, 0x3d, 0xc8, 0x4c,
    0xf0, 0xbc, 0xb4, 0xb1, 0x59, 0x3d, 0xd5, 0x7c, 0xdd, 0xbd,
    0x77, 0x0c, 0x66, 0xbc, 0xc0, 0x2c, 0xee, 0x3b, 0xe4, 0x24,
    0x86, 0xbd, 0xa9, 0xa0, 0x9d, 0xbd, 0x04, 0x0c, 0x9b, 0x3d,
    0x0d, 0x07, 0xdd, 0x3c, 0x10, 0x18, 0x21, 0x3d, 0xb9, 0xf2,
    0x8e, 0xbc, 0x1e, 0x3e, 0xf7, 0xbc, 0x61, 0xa4, 0xca, 0x3d,
    0x33, 0xc3, 0x80, 0x3d, 0x82, 0xaf, 0xad, 0xbd, 0x60, 0x0c,
    0xb1, 0x3d, 0x17, 0x65, 0x78, 0xbd, 0xa1, 0x55, 0x50, 0x3d,
    0x81, 0x5d, 0x43, 0xbb, 0xa8, 0x2e, 0xb9, 0xbd, 0x7f, 0x58,
    0x8e, 0x3d, 0x1e, 0x47, 0x2e, 0xbd, 0xe6, 0xb5, 0xb9, 0x3d,
    0xaf, 0xd1, 0x53, 0xbd, 0x35, 0x75, 0x1d, 0xbd, 0x8c, 0x3d,
    0xb1, 0xbd, 0x0d, 0x61, 0xce, 0x3b, 0xbe, 0x93, 0xf8, 0x3b,
    0x06, 0x92, 0x44, 0x3c, 0x7e, 0x99, 0xad, 0xbd, 0x63, 0x93,
    0x86, 0x3c, 0x15, 0x75, 0xa5, 0x3d, 0xa8, 0xcc, 0xde, 0x3c,
    0x06, 0x52, 0x23, 0xbd, 0x63, 0xdf, 0xa0, 0xbc, 0x1c, 0xb7,
    0xf5, 0x3b, 0x9e, 0xf1, 0x4e, 0x3d, 0x37, 0xd4, 0x59, 0xbc,
    0xa0, 0x6a, 0x0c, 0x3d, 0x8c, 0x78, 0x82, 0xbd, 0x44, 0xb1,
    0x49, 0xbd, 0x2f, 0x94, 0x80, 0x3b, 0xbb, 0x12, 0x7e, 0x3d,
    0x12, 0x5c, 0x5b, 0x3d, 0x18, 0xb2, 0x4a, 0xbd, 0x46, 0x78,
    0x28, 0x3d, 0x2f, 0xf3, 0x9a, 0x3d, 0xb0, 0x23, 0x93, 0x3d,
    0xbf, 0x66, 0x51, 0x3d, 0x7b, 0x0a, 0x35, 0x3d, 0xd4, 0xe5,
    0x8d, 0x3a, 0x5b, 0x88, 0x16, 0x3c, 0x87, 0x31, 0x1f, 0xbd,
    0x82, 0x44, 0x12, 0x3c, 0xbe, 0xe4, 0xc0, 0x3c, 0xf4, 0x3b,
    0x7d, 0x3c, 0x4f, 0x86, 0x1f, 0xbb, 0xd7, 0x57, 0x56, 0x3c,
    0xc3, 0x92, 0xd4, 0x3c, 0xc0, 0x11, 0xc8, 0xbb, 0xd2, 0xa1,
    0x90, 0xbb, 0x01, 0x08, 0x89, 0xbd, 0xca, 0xf0, 0x57, 0xbd,
    0x6b, 0x7b, 0xb0, 0xbd, 0x99, 0xcf, 0xa3, 0x3c, 0xbf, 0xda,
    0xda, 0x3c, 0x23, 0x88, 0xf4, 0x3b, 0xbf, 0x2e, 0x4b, 0x3d,
    0x04, 0x47, 0xa8, 0x3d, 0x2b, 0xf2, 0x5a, 0x3c, 0xc2, 0x3e,
    0x94, 0x3b, 0x6d, 0x1f, 0xcf, 0xbd, 0xbb, 0xf6, 0x15, 0xbd,
    0x5a, 0x15, 0x05, 0xbe, 0x40, 0x49, 0x33, 0xbd, 0x00, 0xc0,
    0xbc, 0xbd, 0x67, 0xb5, 0x80, 0xbd, 0x28, 0x38, 0xf6, 0xbe,
    0x31, 0x3d, 0xa4, 0xbb, 0x1c, 0xfc, 0x2c, 0xbf, 0x69, 0xf8,
    0x2d, 0xbd, 0xc8, 0x78, 0x77, 0x3e, 0x75, 0xe3, 0x4a, 0xbf,
    0x4b, 0x36, 0xfe, 0x3e, 0x23, 0x13, 0x92, 0xbe, 0x46, 0x52,
    0x34, 0xbf, 0x12, 0x12, 0xad, 0xbd, 0x87, 0x71, 0x60, 0xbe,
    0x77, 0x1e, 0xd8, 0xbc, 0xda, 0xba, 0x48, 0xbd, 0x0d, 0x7b,
    0x9d, 0xbe, 0xce, 0xe2, 0x66, 0xbb, 0x63, 0x54, 0xa4, 0x3e,
    0x0c, 0x20, 0x20, 0xbf, 0x2b, 0xf6, 0x2f, 0xbf, 0x2a, 0x69,
    0x8e, 0xbe, 0x2e, 0xcf, 0x78, 0xbc, 0x4e, 0x2a, 0xb1, 0xbc,
    0x8a, 0x81, 0x84, 0xbd, 0x40, 0x43, 0x0b, 0x3f, 0x38, 0xde,
    0x2e, 0xbd, 0xbc, 0x31, 0x75, 0xbe, 0x5a, 0x28, 0x9b, 0xbe,
    0x00, 0x40, 0x6f, 0x3d, 0xde, 0xb4, 0x92, 0xbe, 0xa4, 0xe6,
    0x86, 0x3e, 0x69, 0x63, 0x16, 0x3e, 0xd0, 0x38, 0x6b, 0x3d,
    0x50, 0xcf, 0xe3, 0x3d, 0x79, 0xfe, 0x43, 0xbe, 0x88, 0x71,
    0x5e, 0xbe, 0x1d, 0xf0, 0xaa, 0xbe, 0x92, 0x2d, 0xdb, 0xbd,
    0x5e, 0x90, 0x6a, 0xbe, 0xda, 0x96, 0x44, 0xbd, 0xe6, 0x8d,
    0x8c, 0xbd, 0x98, 0x6e, 0x45, 0x3e, 0x07, 0x39, 0x14, 0xbe,
    0x6d, 0xf1, 0xf4, 0xbd, 0x26, 0x9d, 0xb0, 0xbd, 0x93, 0xea,
    0x84, 0xbe, 0xf0, 0x89, 0xba, 0xbe, 0xe5, 0x4f, 0x9e, 0xbe,
    0xd3, 0xbc, 0x5c, 0xbc, 0xb2, 0xdf, 0xbb, 0xbd, 0x08, 0x86,
    0xd7, 0x3d, 0xd9, 0x77, 0x90, 0xbe, 0xbb, 0xc7, 0x90, 0xbd,
    0xa9, 0x74, 0x5c, 0xbe, 0x1e, 0xdf, 0xa7, 0x3d, 0x52, 0xa9,
    0x9f, 0xbd, 0x27, 0xf6, 0x57, 0x3d, 0x75, 0x19, 0x9a, 0xbd,
    0x87, 0x46, 0xdb, 0xbd, 0x28, 0x0e, 0x7f, 0xbd, 0xbe, 0xa8,
    0x9b, 0xbd, 0x8b, 0x06, 0xdd, 0xbd, 0xfc, 0xaa, 0x37, 0xbe,
    0x42, 0x8c, 0x54, 0xbd, 0x96, 0x11, 0x95, 0xbe, 0xea, 0x13,
    0xaf, 0x3d, 0x62, 0xf6, 0x8f, 0x3c, 0x3f, 0x5b, 0x1f, 0xbe,
    0xe1, 0x98, 0x1e, 0xbe, 0x57, 0x88, 0x6a, 0xbe, 0xa7, 0xb8,
    0x9b, 0xbe, 0x1e, 0x48, 0x78, 0xbe, 0x52, 0x8d, 0x8c, 0x3e,
    0x45, 0xc0, 0x27, 0xbd, 0x2f, 0x4b, 0x1b, 0xbe, 0xf8, 0x5a,
    0x34, 0xbe, 0x05, 0x13, 0x75, 0x3b, 0xc4, 0x6c, 0xa2, 0xbe,
    0xba, 0xde, 0xdf, 0x3d, 0x88, 0x8e, 0xc1, 0xbd, 0x7a, 0x2b,
    0x7a, 0x3e, 0x27, 0xa8, 0x6d, 0xbd, 0xdf, 0x00, 0xd6, 0xbd,
    0x80, 0x40, 0xa6, 0x3d, 0xe1, 0x24, 0x03, 0xbe, 0x34, 0x99,
    0xc8, 0x3d, 0xe5, 0x86, 0x85, 0xbd, 0x76, 0xaf, 0xb5, 0xbd,
    0x27, 0x4e, 0x42, 0x3e, 0x28, 0xd0, 0x4e, 0x3e, 0x01, 0xe0,
    0x66, 0xbd, 0x1d, 0x00, 0x81, 0xbd, 0xc4, 0x6b, 0x52, 0xbd,
    0xeb, 0xe4, 0x17, 0xbe, 0xfc, 0xf7, 0xf4, 0xbd, 0x7e, 0xd2,
    0xeb, 0xba, 0x33, 0xa3, 0x18, 0x3e, 0xdf, 0xda, 0x3a, 0xbe,
    0xa0, 0x30, 0xe1, 0x3c, 0xd1, 0x1a, 0x9c, 0xbe, 0x15, 0xc9,
    0x32, 0x3e, 0x58, 0xf2, 0xeb, 0xbd, 0xcd, 0x6e, 0xb6, 0x3d,
    0xb2, 0x13, 0x78, 0xbd, 0x7e, 0x99, 0x7b, 0x3e, 0x52, 0x71,
    0x62, 0x3d, 0x49, 0x6b, 0x4d, 0xbe, 0x8e, 0xa5, 0xa9, 0xbd,
    0x3f, 0xd1, 0xb5, 0x3c, 0x6c, 0xcf, 0x5e, 0x3c, 0x82, 0xea,
    0x33, 0xbd, 0x41, 0xa8, 0x37, 0xbd, 0x7e, 0x7c, 0xae, 0xbd,
    0x0c, 0x3b, 0x2c, 0x3e, 0x8f, 0x86, 0xfc, 0xbc, 0xcc, 0xfd,
    0x40, 0xbe, 0x95, 0xc2, 0xe7, 0xbc, 0x46, 0xd3, 0x2b, 0xbe,
    0xd9, 0x08, 0xf7, 0xbd, 0x7d, 0xcb, 0x94, 0xbe, 0xba, 0x4a,
    0xd7, 0x3b, 0xde, 0x71, 0x28, 0x3d, 0xf8, 0x87, 0x44, 0xbc,
    0xc8, 0x71, 0x14, 0xbd, 0x9c, 0x59, 0x50, 0xbe, 0xea, 0x44,
    0xa7, 0xbe, 0x87, 0xaf, 0x25, 0xbe, 0x43, 0x63, 0x1d, 0x3e,
    0x33, 0xd5, 0x03, 0x3e, 0xf3, 0x9f, 0x93, 0xbd, 0x54, 0xf9,
    0x69, 0xbe, 0xce, 0xef, 0x78, 0xbe, 0xa9, 0x3f, 0x0d, 0xbe,
    0xc5, 0x23, 0x0b, 0xbe, 0xe8, 0x48, 0x03, 0x3d, 0xee, 0x93,
    0x23, 0xbd, 0xd9, 0x95, 0x28, 0xbe, 0xd4, 0xef, 0x4d, 0x3e,
    0xaa, 0xad, 0x1a, 0xbb, 0x18, 0x8a, 0x6d, 0xbe, 0x49, 0x93,
    0x36, 0xbe, 0x15, 0x78, 0x26, 0xbe, 0x4f, 0x5f, 0x24, 0xbe,
    0x55, 0xa9, 0xc7, 0xbd, 0xe6, 0x22, 0x7a, 0x3e, 0xc2, 0x19,
    0x15, 0x3d, 0xc7, 0xe4, 0x43, 0xbe, 0x67, 0xa8, 0x7c, 0x3c,
    0x61, 0x3f, 0x89, 0x3b, 0xe9, 0xf4, 0x5f, 0xbe, 0x45, 0x14,
    0x84, 0x3c, 0xad, 0x37, 0x32, 0x3d, 0x02, 0x06, 0x57, 0x3d,
    0x12, 0x62, 0x1b, 0xbd, 0x00, 0xb1, 0x30, 0xbd, 0x3a, 0x84,
    0x6e, 0x3d, 0x40, 0x3a, 0x07, 0xbd, 0xd2, 0xbe, 0x4d, 0x3d,
    0x67, 0x77, 0x23, 0xbe, 0x83, 0xc5, 0x93, 0xbd, 0x5d, 0xae,
    0x29, 0x3e, 0xad, 0x84, 0xcb, 0x3c, 0xc8, 0x2a, 0x0b, 0xbe,
    0xee, 0xf4, 0x6f, 0xbe, 0x8a, 0x39, 0xda, 0x3c, 0x16, 0xc8,
    0x29, 0xbe, 0xca, 0xc1, 0x3d, 0xbd, 0xf8, 0xd2, 0x9b, 0xbe,
    0x72, 0x2d, 0x92, 0x3e, 0xae, 0x9d, 0x1c, 0xbe, 0x8c, 0x9c,
    0x27, 0xbe, 0x5f, 0xbc, 0x93, 0xbe, 0xa3, 0x17, 0x40, 0xbd,
    0x62, 0x32, 0x54, 0xbe, 0xc0, 0x7f, 0x7a, 0x3d, 0xd2, 0x0f,
    0x3a, 0xbc, 0xfa, 0x50, 0xe0, 0x3d, 0xd2, 0x2d, 0x7a, 0xbd,
    0xfa, 0x94, 0x00, 0xbe, 0x8d, 0x65, 0xb5, 0xbe, 0x6c, 0xef,
    0x80, 0x3d, 0x11, 0xb6, 0x89, 0x3d, 0xf8, 0x45, 0x72, 0xbe,
    0xb8, 0x62, 0xc2, 0xbd, 0x6c, 0x52, 0xd6, 0xbd, 0x05, 0x41,
    0x18, 0x3d, 0x78, 0x9e, 0x44, 0x3c, 0xf2, 0xf5, 0x3b, 0xbe,
    0xa8, 0x2b, 0x27, 0xbd, 0x71, 0x37, 0x58, 0xbe, 0x68, 0xb3,
    0xba, 0xbe, 0xc1, 0x13, 0x80, 0xbe, 0x06, 0xc3, 0xb8, 0x3c,
    0x88, 0x14, 0x59, 0x3d, 0x01, 0xe0, 0x98, 0xbe, 0x1a, 0x56,
    0x39, 0xba, 0x39, 0xa6, 0x95, 0x3d, 0x0d, 0x16, 0x2b, 0xbe,
    0x90, 0xa2, 0xa3, 0xbd, 0xce, 0xa1, 0xfa, 0xbd, 0x8f, 0x10,
    0xc9, 0x3d, 0x9d, 0xba, 0x26, 0xbc, 0x1e, 0xc6, 0x46, 0xbe,
    0xbd, 0xee, 0xc9, 0xbd, 0xa4, 0x73, 0xad, 0xbd, 0xf6, 0xf0,
    0x1b, 0xbd, 0x05, 0x58, 0xb4, 0xbd, 0xc4, 0xf2, 0x62, 0xbe,
    0x34, 0x25, 0x33, 0xbd, 0x4f, 0x06, 0x12, 0x3e, 0x38, 0x84,
    0xa4, 0xbe, 0x36, 0x68, 0x86, 0xbe, 0xca, 0x07, 0x8f, 0xbd,
    0x83, 0x78, 0x67, 0xbd, 0x7b, 0x34, 0x2b, 0xbe, 0xe3, 0xca,
    0x7a, 0xbe, 0xbf, 0x01, 0x97, 0x3e, 0xff, 0xf2, 0x99, 0xbd,
    0x8d, 0xed, 0xf3, 0xbc, 0x2c, 0x60, 0x20, 0xbe, 0x89, 0x12,
    0x1e, 0xbc, 0x16, 0x60, 0x75, 0xbe, 0x02, 0xc5, 0x28, 0xbd,
    0x07, 0xb3, 0xa4, 0xbd, 0xf4, 0xe0, 0x6d, 0xba, 0xe7, 0xb5,
    0x37, 0x3d, 0x18, 0x9f, 0xb1, 0xbc, 0xf5, 0x08, 0xad, 0x3c,
    0x0d, 0xd7, 0x59, 0xbd, 0x4d, 0xbc, 0xef, 0xbc, 0xc6, 0x0b,
    0x22, 0x3d, 0x1f, 0xd5, 0xbb, 0x3d, 0x4b, 0x25, 0x8e, 0x3c,
    0xa3, 0xe8, 0xd7, 0x3d, 0xe7, 0x91, 0x3c, 0xbe, 0xd2, 0x5c,
    0x66, 0xbe, 0x60, 0x2d, 0xb8, 0xbd, 0x06, 0x62, 0x07, 0xbe,
    0x83, 0xef, 0x9e, 0xbe, 0x17, 0xf2, 0x2b, 0xbe, 0xb7, 0x97,
    0x0a, 0x3e, 0xaa, 0x98, 0x18, 0xbe, 0x33, 0x3c, 0x1e, 0x3e,
    0x28, 0xf9, 0x9b, 0x3a, 0x0e, 0xeb, 0xbb, 0xba, 0x7b, 0xb0,
    0xf6, 0xbd, 0x32, 0xfb, 0x97, 0x3d, 0x7f, 0xa5, 0x3b, 0x3e,
    0x35, 0x23, 0x96, 0x3d, 0xff, 0x29, 0x91, 0x3c, 0xa1, 0xd5,
    0x1d, 0x3e, 0xd5, 0x8b, 0xc1, 0xbb, 0xc9, 0x2f, 0x2d, 0xbd,
    0x40, 0xa7, 0xcc, 0xbd, 0xb9, 0x81, 0xbf, 0x3c, 0x36, 0x47,
    0x04, 0x3e, 0x78, 0xdb, 0x4e, 0xbd, 0x63, 0x11, 0x85, 0xbd,
    0x38, 0x90, 0x0a, 0x3e, 0xd1, 0xd4, 0x9b, 0x3d, 0xb2, 0x14,
    0xb4, 0x3d, 0x40, 0xd9, 0x6a, 0xbd, 0x5d, 0x77, 0x93, 0xbd,
    0x95, 0xdf, 0xe1, 0xbd, 0x02, 0x08, 0x82, 0x3d, 0x9c, 0xe5,
    0x3f, 0xbe, 0x51, 0x9e, 0x11, 0x3e, 0x09, 0x98, 0xbe, 0xbc,
    0x9a, 0x01, 0x8a, 0x3d, 0xc7, 0x51, 0x1b, 0x3e, 0xd5, 0x4e,
    0x92, 0xbd, 0x6b, 0xc2, 0x30, 0x3e, 0x62, 0xaa, 0x8f, 0xbb,
    0x97, 0x20, 0x84, 0xbc, 0x7e, 0xab, 0xbb, 0xbd, 0x81, 0x29,
    0x8e, 0x3b, 0xc1, 0xe8, 0x4d, 0xbc, 0x1b, 0x55, 0x2c, 0xbe,
    0xb8, 0x46, 0x08, 0xbe, 0xb6, 0xb9, 0x00, 0xbd, 0xc5, 0x61,
    0xb4, 0xbd, 0xa6, 0xb9, 0xb0, 0x3d, 0x1f, 0xdb, 0x92, 0x3d,
    0xf6, 0xd2, 0xdd, 0x3b, 0xfa, 0x2c, 0xdd, 0x3d, 0xed, 0x3d,
    0x10, 0x3d, 0x1b, 0x61, 0xcc, 0x3c, 0x0d, 0x6a, 0xfd, 0xbd,
    0x34, 0xc5, 0xfe, 0x3d, 0xfa, 0x51, 0xd9, 0xbd, 0x4f, 0xbb,
    0x81, 0x3d, 0x9e, 0x7c, 0x12, 0x3e, 0xba, 0x79, 0x35, 0x3e,
    0x88, 0x2e, 0xbb, 0x3d, 0xfd, 0x14, 0x0b, 0x3d, 0xe4, 0x3a,
    0x74, 0x3e, 0xcc, 0x18, 0x8f, 0x3d, 0x5d, 0x39, 0x10, 0xbd,
    0xc7, 0x2d, 0x1d, 0x3e, 0x67, 0x6f, 0x10, 0x3e, 0x8e, 0x4b,
    0x58, 0xbe, 0xe8, 0xcc, 0x80, 0xbd, 0x12, 0x2e, 0x18, 0xbb,
    0xee, 0xf0, 0x82, 0xbc, 0xe6, 0x2c, 0x3b, 0x3d, 0x18, 0x66,
    0x31, 0x3d, 0xee, 0xa8, 0x4a, 0x3e, 0x63, 0x43, 0xde, 0x3d,
    0x30, 0x0f, 0xae, 0x3c, 0x7a, 0x0c, 0x59, 0x3d, 0x00, 0x46,
    0x15, 0xbe, 0xfe, 0xb4, 0xcc, 0xbc, 0x0e, 0xd5, 0xed, 0x3c,
    0x50, 0xc8, 0x11, 0xbd, 0xa6, 0xfc, 0x20, 0x3e, 0x01, 0x9d,
    0xb5, 0xbd, 0xe0, 0x9f, 0xa6, 0x3d, 0x15, 0x4a, 0x43, 0xbd,
    0xbf, 0x30, 0x95, 0x3d, 0xa7, 0x87, 0xa4, 0x3d, 0xa5, 0x13,
    0xba, 0x3b, 0x7c, 0x44, 0xfe, 0xbc, 0x19, 0x12, 0xb6, 0x3d,
    0x72, 0x54, 0xbd, 0x3d, 0x0f, 0x4b, 0x44, 0x3d, 0x55, 0x3d,
    0x21, 0xbe, 0xa7, 0xc5, 0x1d, 0xbd, 0x04, 0x97, 0x4a, 0x3e,
    0xf4, 0x54, 0x75, 0xbd, 0xfb, 0x27, 0x0a, 0xbd, 0x35, 0x0c,
    0x4c, 0x3c, 0xcd, 0x61, 0xc0, 0x3d, 0xa9, 0xc5, 0x13, 0x3e,
    0xa4, 0x8f, 0x07, 0xbe, 0xf8, 0x9b, 0x50, 0x3d, 0x9d, 0xcb,
    0x39, 0xbe, 0xd5, 0x46, 0x1f, 0x3e, 0xb3, 0x4b, 0xe0, 0xbc,
    0xd8, 0x37, 0x83, 0x3e, 0xec, 0x3a, 0x05, 0xbe, 0x07, 0x78,
    0x06, 0x3e, 0x01, 0xbe, 0xce, 0x3c, 0x76, 0x1c, 0x05, 0x3d,
    0x66, 0xcc, 0xb4, 0x3a, 0x98, 0x3e, 0xdf, 0x3b, 0xc3, 0x48,
    0xb6, 0x3c, 0x7f, 0xed, 0xd4, 0x3d, 0x93, 0xc1, 0x72, 0xbd,
    0x10, 0x5c, 0x8d, 0x3d, 0xee, 0xd0, 0x5f, 0xbe, 0xdb, 0x09,
    0x97, 0xbd, 0x1a, 0xd4, 0x6f, 0x3d, 0x75, 0xa4, 0x9c, 0x3d,
    0x69, 0xbe, 0x2f, 0x3d, 0xf1, 0xd0, 0xf9, 0x3d, 0xc2, 0xf5,
    0xa9, 0x3d, 0xa3, 0xa5, 0xea, 0x3d, 0xab, 0x79, 0xc2, 0xbd,
    0x77, 0x2b, 0xad, 0xbd, 0x26, 0x56, 0x52, 0xbe, 0x94, 0xbc,
    0xe2, 0x3d, 0xff, 0x6e, 0x88, 0xbd, 0x6d, 0x68, 0x18, 0xbd,
    0xa0, 0xd5, 0x0f, 0x3e, 0x9d, 0x9e, 0x75, 0x3e, 0x9c, 0x6a,
    0xee, 0xbd, 0x69, 0x77, 0x36, 0xbc, 0xd2, 0x2f, 0x80, 0x3e,
    0x67, 0x54, 0x57, 0xbc, 0x88, 0x57, 0x95, 0xbd, 0x07, 0x78,
    0xb7, 0x3d, 0x17, 0x1e, 0xc9, 0x3b, 0x45, 0xac, 0x0b, 0xbe,
    0x09, 0xbe, 0xec, 0xbb, 0xcc, 0x4f, 0x12, 0x3d, 0xef, 0xf8,
    0x41, 0x3d, 0xeb, 0xb4, 0x81, 0x3d, 0xe5, 0x28, 0x4d, 0xbd,
    0x06, 0x3b, 0x23, 0x3e, 0x7a, 0xa8, 0xb2, 0x3d, 0x34, 0xec,
    0x7b, 0x3c, 0x8c, 0x46, 0x93, 0xbd, 0x97, 0xf5, 0x1d, 0xbe,
    0x42, 0xc7, 0xc7, 0xbc, 0xae, 0xe4, 0xf7, 0xbc, 0x57, 0xef,
    0x36, 0xbe, 0x75, 0xfb, 0xbc, 0x3d, 0x93, 0xfa, 0x69, 0xbd,
    0xe7, 0xb6, 0x1e, 0xbc, 0x20, 0x37, 0xca, 0xbc, 0x18, 0x65,
    0xfe, 0xbb, 0x11, 0x3c, 0x03, 0x3e, 0x51, 0x26, 0x2a, 0x3d,
    0x20, 0xc0, 0x98, 0x3d, 0xbd, 0xb9, 0x55, 0x3e, 0xbd, 0x4c,
    0x52, 0x3e, 0x35, 0x7e, 0xd8, 0xbd, 0x85, 0xac, 0x18, 0xbe,
    0x9d, 0xd1, 0x59, 0xbd, 0xa4, 0xc7, 0x19, 0x3c, 0x9e, 0x64,
    0xc0, 0x3c, 0xe6, 0x86, 0xfa, 0x3d, 0xe0, 0x24, 0x32, 0xb8,
    0xc7, 0x60, 0x68, 0x3e, 0xa1, 0x70, 0x81, 0x3b, 0x47, 0xe3,
    0xba, 0xbd, 0x00, 0xef, 0x89, 0x3b, 0x44, 0x79, 0x6e, 0xbc,
    0x23, 0xbb, 0xc0, 0x3b, 0x5c, 0x83, 0xaa, 0xbd, 0xeb, 0xfb,
    0x0c, 0x3e, 0xd9, 0xc3, 0xfa, 0x3c, 0xe7, 0xa2, 0x27, 0xbc,
    0xd0, 0xea, 0xd1, 0x3b, 0x1f, 0xd3, 0x07, 0x3e, 0x8c, 0xbe,
    0xb7, 0x3d, 0xfb, 0x45, 0x39, 0xbc, 0xa7, 0x99, 0xe8, 0xbd,
    0x93, 0xcc, 0x76, 0x3d, 0xfe, 0xb7, 0xf9, 0xbc, 0x1e, 0x15,
    0x3d, 0xbd, 0x3b, 0x38, 0x81, 0x3d, 0x1a, 0xd3, 0x95, 0x3c,
    0x5e, 0x18, 0x46, 0x3d, 0x9b, 0x75, 0xf0, 0xbc, 0x7e, 0x22,
    0x14, 0x3d, 0x27, 0x8d, 0xde, 0x3c, 0xff, 0x0a, 0x09, 0x3e,
    0x90, 0x23, 0x21, 0xbd, 0xa9, 0xfa, 0x3a, 0x3d, 0xa6, 0xb1,
    0xd2, 0xbd, 0xde, 0xbf, 0xeb, 0xbd, 0xd9, 0x05, 0x5a, 0xbb,
    0x58, 0xd3, 0xbb, 0x3c, 0x14, 0x7f, 0xea, 0x3c, 0xae, 0x1f,
    0xe7, 0xbb, 0xcb, 0x4f, 0xd7, 0x3d, 0xe4, 0x2f, 0x8e, 0x3c,
    0xf4, 0x65, 0x30, 0x3e, 0x8a, 0xb2, 0x50, 0x3e, 0x50, 0xe4,
    0xfb, 0xbc, 0x13, 0x0c, 0xaa, 0x3d, 0xed, 0x7e, 0x05, 0x3e,
    0xa7, 0x5a, 0xe7, 0x3d, 0xde, 0x31, 0xc5, 0xbd, 0x9f, 0xba,
    0x48, 0xbe, 0x29, 0x0a, 0x42, 0x3b, 0x37, 0xe7, 0x2d, 0x3d,
    0xa9, 0x46, 0x8b, 0x3c, 0x6b, 0x64, 0x81, 0x3d, 0x04, 0x0e,
    0x6d, 0x3d, 0x1e, 0xfc, 0x3f, 0x3e, 0x74, 0xac, 0xc2, 0xbd,
    0x65, 0x0f, 0x0a, 0xbe, 0x15, 0x54, 0x12, 0xbd, 0x54, 0x00,
    0x49, 0xbd, 0x99, 0x69, 0x2a, 0x3a, 0xb8, 0x76, 0xa4, 0xbd,
    0xa1, 0x5d, 0xd8, 0xbd, 0x1e, 0xa4, 0xc2, 0x3d, 0x55, 0x79,
    0x02, 0x3e, 0xd2, 0xcd, 0x5b, 0x3d, 0x02, 0x3a, 0x2c, 0xbe,
    0xbb, 0x3b, 0x76, 0xbc, 0xa0, 0x64, 0x16, 0x3d, 0xee, 0xe4,
    0xec, 0x3b, 0x62, 0xcf, 0x97, 0xbd, 0x68, 0xdc, 0x59, 0x3d,
    0x61, 0x5f, 0x9a, 0x3d, 0x75, 0x32, 0x57, 0xbd, 0xd6, 0x62,
    0x07, 0x3e, 0xca, 0xfa, 0xb5, 0xbd, 0x08, 0x6e, 0x9a, 0x3b,
    0x44, 0x9f, 0x7c, 0x3d, 0xfb, 0x8d, 0xa2, 0xbd, 0x87, 0xd1,
    0x28, 0xbd, 0xdf, 0x78, 0xdc, 0xbd, 0xec, 0x06, 0x27, 0x3d,
    0x5d, 0x78, 0x99, 0x3d, 0xb1, 0x9d, 0xb2, 0x3c, 0x6a, 0x13,
    0xd9, 0x3d, 0x46, 0xa9, 0x65, 0x3d, 0xe1, 0x35, 0x6f, 0xbd,
    0x7c, 0xf8, 0x2f, 0x3d, 0x8d, 0xf5, 0x47, 0xbd, 0x9a, 0x6b,
    0x6b, 0x3c, 0x62, 0x22, 0x7d, 0xbd, 0xd5, 0x9e, 0x28, 0xbe,
    0xf7, 0x1d, 0xcb, 0xbd, 0xa8, 0xd3, 0x32, 0x3b, 0xe6, 0x1f,
    0xc7, 0x3c, 0x62, 0x95, 0xce, 0x3c, 0x15, 0xd0, 0x0f, 0x3e,
    0x98, 0x47, 0xea, 0x3d, 0xe5, 0x5f, 0xac, 0x3d, 0xee, 0x2b,
    0xc2, 0xbc, 0x20, 0x70, 0x82, 0x3d, 0xe7, 0x4d, 0x9b, 0x3c,
    0x10, 0x29, 0x14, 0x3e, 0xe8, 0xc7, 0x86, 0xbd, 0x54, 0xb1,
    0xc2, 0xbd, 0xcf, 0xbb, 0x9d, 0x3d, 0xcc, 0xc7, 0x3a, 0xbc,
    0x27, 0xa1, 0x09, 0x3e, 0xda, 0xc5, 0x5e, 0xbe, 0xe8, 0xb3,
    0x00, 0xbc, 0x25, 0x6a, 0xc3, 0xbd, 0xfa, 0x75, 0xa2, 0xbd,
    0xfb, 0x28, 0x2c, 0xbe, 0x3b, 0x49, 0xfd, 0xbd, 0x5e, 0xba,
    0x1d, 0xbd, 0x6e, 0x96, 0x83, 0xbe, 0x83, 0x82, 0x56, 0xbd,
    0x7e, 0x9a, 0x1d, 0x3e, 0x04, 0x0e, 0xd8, 0x3d, 0x28, 0x2b,
    0x10, 0xbe, 0x92, 0x6b, 0x29, 0x3e, 0x08, 0x4f, 0xf9, 0xbc,
    0x27, 0x92, 0x8b, 0xbd, 0x66, 0x50, 0x08, 0xbc, 0x01, 0x16,
    0x77, 0xbd, 0x87, 0xd8, 0xe7, 0x3d, 0x4e, 0x3e, 0x1f, 0xbd,
    0x2d, 0x4c, 0x46, 0xbd, 0x21, 0x0e, 0x37, 0x3d, 0x63, 0xc8,
    0x87, 0xbd, 0x92, 0x46, 0xc1, 0x3d, 0xf3, 0xd8, 0x16, 0x3d,
    0x2a, 0xd8, 0x7a, 0xbd, 0x7d, 0x6f, 0xc3, 0x3d, 0xd9, 0x3e,
    0x31, 0xbd, 0x45, 0x72, 0xd4, 0x3d, 0x16, 0xcf, 0xd8, 0x3d,
    0xe3, 0xc1, 0x43, 0xbc, 0xd4, 0x72, 0x97, 0xbc, 0x9d, 0x0b,
    0xc2, 0xbd, 0xaf, 0xf7, 0x53, 0xbd, 0x23, 0x71, 0x0a, 0xbd,
    0x9e, 0x76, 0x27, 0xbc, 0xf5, 0x9d, 0xf7, 0x3c, 0x63, 0xc0,
    0x9e, 0x3d, 0xc7, 0xd1, 0xd2, 0x3c, 0xb1, 0xb7, 0xf1, 0x3d,
    0xfd, 0x4a, 0x1d, 0xbe, 0xcb, 0x9a, 0x45, 0x3c, 0xd6, 0x9a,
    0xb7, 0xbd, 0x36, 0x3e, 0x0a, 0xbe, 0x6f, 0x97, 0x05, 0xbe,
    0xbb, 0xfd, 0xbe, 0xbc, 0x74, 0x25, 0xf7, 0x3d, 0xa9, 0xc1,
    0x3c, 0xbb, 0x83, 0x17, 0x8f, 0x3d, 0x28, 0x56, 0x77, 0xbd,
    0x79, 0xb2, 0x59, 0xbc, 0xe8, 0x23, 0x83, 0xbd, 0x08, 0x3e,
    0x8e, 0xbd, 0xf2, 0x54, 0x2e, 0xbd, 0xa8, 0x9a, 0x28, 0xbd,
    0x49, 0x20, 0xc7, 0x3c, 0x99, 0xd3, 0xfb, 0x3c, 0x88, 0xa5,
    0x2d, 0xbe, 0x84, 0xd7, 0xc1, 0xbc, 0x0e, 0xb3, 0xf9, 0x3c,
    0x39, 0x5c, 0xc7, 0x3c, 0xf5, 0x10, 0x3e, 0xbc, 0x2f, 0xa3,
    0xa9, 0x3d, 0x0b, 0x49, 0x01, 0x3d, 0x34, 0xb1, 0x55, 0xbe,
    0x7f, 0x83, 0xa1, 0x3d, 0xda, 0x49, 0x7f, 0xbc, 0x2b, 0x12,
    0xce, 0x3c, 0xa0, 0xb0, 0x0f, 0x3d, 0xcc, 0xb2, 0xdb, 0xbd,
    0xff, 0x06, 0xbe, 0x3d, 0x89, 0x74, 0x9f, 0x3c, 0x9a, 0x1a,
    0xe5, 0x3d, 0xc6, 0x66, 0xf5, 0xbd, 0xda, 0xcb, 0x8e, 0x3d,
    0x4d, 0x2c, 0xe5, 0xbd, 0xf8, 0x7e, 0x80, 0xbd, 0x35, 0xa4,
    0x6d, 0xbe, 0xb4, 0xc4, 0x82, 0xbd, 0x3f, 0xc9, 0x9c, 0x3d,
    0xfa, 0xf9, 0x4f, 0xbe, 0x44, 0xd6, 0x96, 0x3d, 0x18, 0x00,
    0x49, 0x3e, 0x99, 0xf7, 0x59, 0x3d, 0x36, 0xc2, 0xb1, 0xbd,
    0x07, 0x5e, 0xd6, 0x3d, 0xce, 0x9d, 0x0f, 0x3c, 0x9e, 0x77,
    0xe2, 0xbd, 0xe0, 0x32, 0x96, 0xbd, 0x63, 0x71, 0x13, 0xbe,
    0xd5, 0xe1, 0x3b, 0xbd, 0xc8, 0xda, 0x22, 0xbd, 0xee, 0x24,
    0x50, 0xbd, 0xdc, 0xae, 0xd1, 0x3c, 0xa8, 0x25, 0x67, 0xbd,
    0xf4, 0x22, 0xb1, 0x3d, 0xba, 0x2f, 0x85, 0x3d, 0x5b, 0x1e,
    0x58, 0xbd, 0x5a, 0x51, 0x09, 0x3e, 0x17, 0x48, 0x38, 0xbd,
    0xab, 0x20, 0x89, 0x3c, 0x6d, 0x9d, 0x0e, 0x3e, 0xb4, 0xc2,
    0x08, 0x3d, 0xbe, 0x55, 0xf0, 0xbd, 0x32, 0xaf, 0x55, 0xbd,
    0xf4, 0x2f, 0xae, 0xbd, 0x7c, 0xdb, 0xad, 0xba, 0x39, 0xf2,
    0xb9, 0xbd, 0x14, 0x4b, 0xe2, 0xbc, 0x42, 0xd2, 0x72, 0x3d,
    0xdb, 0xe7, 0xe9, 0x3d, 0x3d, 0x3e, 0x4a, 0x3e, 0xd1, 0x40,
    0xe4, 0xbd, 0x0f, 0xc1, 0x06, 0xbd, 0xfb, 0x63, 0xb0, 0xbd,
    0x27, 0x5b, 0x48, 0xbe, 0x41, 0xf4, 0xbf, 0x3d, 0x16, 0x01,
    0xe4, 0xbb, 0x89, 0xe0, 0x8e, 0x3b, 0x5b, 0x6c, 0xd8, 0x3d,
    0xea, 0x5a, 0x51, 0x3d, 0x83, 0x4f, 0x1d, 0xbe, 0x2a, 0xb5,
    0xdd, 0x3d, 0xba, 0xea, 0xe0, 0xbd, 0x27, 0x2e, 0x9c, 0xbd,
    0xf9, 0xa4, 0xec, 0xbc, 0xa0, 0x66, 0x25, 0xbd, 0xcd, 0x98,
    0x34, 0xbc, 0x8b, 0x17, 0xd4, 0xbd, 0x7e, 0x53, 0x03, 0xbe,
    0x68, 0x5b, 0x28, 0x3d, 0x4d, 0x94, 0x17, 0xbd, 0x4e, 0x33,
    0xc0, 0xbd, 0x7e, 0x48, 0xe2, 0x3c, 0xac, 0x51, 0x1f, 0x3e,
    0x47, 0xce, 0x17, 0x3d, 0x49, 0x80, 0x38, 0xbe, 0x30, 0xff,
    0xc4, 0xbd, 0x8e, 0xed, 0x59, 0x3d, 0x62, 0xb7, 0x93, 0x3d,
    0x1f, 0x31, 0x64, 0xbd, 0xda, 0x6e, 0xbd, 0x3a, 0xbf, 0xcc,
    0x98, 0x3d, 0x5b, 0x21, 0xa1, 0x3d, 0x38, 0x11, 0x58, 0x3d,
    0x67, 0x49, 0x90, 0xbd, 0xd6, 0x9a, 0x16, 0x3e, 0x1f, 0x5c,
    0x1a, 0xbe, 0x32, 0x49, 0x07, 0xbd, 0x56, 0x45, 0x64, 0xbe,
    0x1e, 0x94, 0x80, 0xbc, 0xbc, 0x6e, 0x95, 0xbd, 0xd1, 0xb8,
    0xb2, 0xbe, 0xfe, 0xec, 0xda, 0xbc, 0x20, 0x8b, 0xdf, 0x3d,
    0x74, 0x44, 0x8a, 0xbd, 0x94, 0xee, 0x5f, 0xbd, 0xe7, 0xc0,
    0x33, 0x3e, 0x43, 0x8f, 0xd0, 0x3d, 0x45, 0x73, 0xc6, 0x3c,
    0xf8, 0xe1, 0x04, 0x3d, 0xcd, 0xb2, 0xb3, 0xbb, 0x50, 0xf2,
    0x4f, 0x3c, 0x00, 0x3c, 0xa4, 0x3c, 0xc2, 0xfc, 0xd4, 0xbd,
    0x85, 0x5e, 0x0e, 0x3e, 0x3d, 0x6c, 0x44, 0xbd, 0x02, 0xb9,
    0xf1, 0x3d, 0x40, 0xbe, 0xa5, 0x3d, 0x63, 0x75, 0x17, 0xbe,
    0xdc, 0x00, 0x11, 0x3e, 0xb9, 0xea, 0x9e, 0xbc, 0x9f, 0x2a,
    0x44, 0xbe, 0x69, 0x46, 0xaf, 0x3d, 0x33, 0x30, 0x83, 0xbd,
    0xe5, 0xaa, 0x39, 0x3d, 0x05, 0x59, 0xd0, 0x3d, 0xf4, 0xdf,
    0xc4, 0xbd, 0xf2, 0x51, 0x95, 0xbd, 0x7d, 0x52, 0xdc, 0xbb,
    0xbb, 0x8f, 0x0e, 0x3d, 0x9a, 0xc9, 0x7e, 0xbc, 0x4a, 0x09,
    0x15, 0xbe, 0x8c, 0xe6, 0x31, 0xbe, 0xe5, 0xce, 0x04, 0x3e,
    0xb5, 0x0a, 0x5d, 0xbd, 0x73, 0x1a, 0x04, 0x3e, 0xe8, 0xd6,
    0xcf, 0x3c, 0xc9, 0x3d, 0x5a, 0x3e, 0x2c, 0x91, 0xe1, 0x3d,
    0x28, 0x74, 0x02, 0xbe, 0xa3, 0x44, 0x4b, 0xbd, 0x15, 0xab,
    0x6a, 0xbd, 0x9d, 0xe8, 0x14, 0x3e, 0xc9, 0x98, 0xe6, 0xbc,
    0x19, 0x35, 0xd1, 0xbc, 0x0f, 0xd4, 0x96, 0xbd, 0x14, 0x47,
    0xdd, 0x3d, 0x19, 0xb1, 0x74, 0xbd, 0x88, 0xf0, 0x86, 0xbd,
    0xdc, 0x9e, 0xb7, 0x3d, 0xa7, 0x6a, 0x31, 0x3e, 0xfb, 0x09,
    0x9b, 0xbd, 0xb3, 0xc9, 0x31, 0xbc, 0xa9, 0x19, 0xcd, 0x3d,
    0xb0, 0xfc, 0xfd, 0xbd, 0x7e, 0x44, 0x3c, 0xbc, 0xd6, 0x51,
    0x2f, 0xbb, 0xcf, 0x6d, 0x28, 0x3e, 0xac, 0xee, 0x12, 0x3b,
    0xe1, 0x3c, 0xda, 0x3d, 0x1d, 0x79, 0xea, 0xbc, 0x18, 0x55,
    0x8b, 0xbd, 0x5a, 0x49, 0x00, 0x3e, 0x97, 0xaa, 0xe7, 0xbd,
    0xc0, 0x5d, 0x9a, 0xbd, 0x45, 0xc7, 0xe7, 0xbc, 0xff, 0x13,
    0x09, 0x3e, 0x11, 0x17, 0xfc, 0xbd, 0x5f, 0x6f, 0x86, 0x3d,
    0xa3, 0x18, 0xef, 0x3d, 0xfc, 0x9c, 0x12, 0x3e, 0xa9, 0x4a,
    0x6f, 0x3e, 0xa5, 0x52, 0x8d, 0x3d, 0xaa, 0xa8, 0xba, 0x3e,
    0xbc, 0x52, 0xa9, 0x3d, 0x0f, 0xa9, 0x9b, 0xbc, 0xa4, 0x28,
    0xd3, 0xbd, 0x50, 0x74, 0x35, 0x3e, 0x46, 0xc6, 0x4c, 0xbd,
    0x39, 0x51, 0x13, 0xbe, 0xc8, 0xa9, 0x0f, 0xbc, 0x87, 0x44,
    0x18, 0x3e, 0x81, 0xaf, 0xdd, 0x3d, 0xaf, 0x9d, 0xec, 0x3c,
    0x12, 0x64, 0xdb, 0x3d, 0x8d, 0x85, 0x8c, 0xbc, 0xa9, 0xb9,
    0xbe, 0xbd, 0x0c, 0x21, 0xb0, 0x3d, 0x4b, 0x26, 0xb5, 0xbc,
    0xa8, 0xd3, 0x54, 0xbc, 0x62, 0xc4, 0x39, 0x3e, 0x0c, 0xfc,
    0xaa, 0xbd, 0x45, 0xd9, 0x55, 0x3d, 0x95, 0x32, 0x79, 0xbd,
    0xde, 0x47, 0x48, 0xbc, 0x5b, 0xda, 0xd8, 0x3c, 0x0b, 0x28,
    0xf1, 0x3c, 0x17, 0x84, 0xaf, 0x3d, 0x4c, 0x72, 0x0d, 0x3e,
    0x72, 0x11, 0xe6, 0x3c, 0xe8, 0xd9, 0xec, 0x3c, 0xdc, 0xd5,
    0x24, 0x3e, 0x74, 0x02, 0xef, 0xbd, 0x62, 0x8f, 0x9a, 0x3c,
    0xb2, 0x15, 0x2d, 0x3c, 0x22, 0x78, 0x32, 0x3e, 0x5e, 0xdb,
    0x3a, 0xbd, 0x5b, 0x5b, 0xcf, 0x3d, 0xf3, 0x10, 0x2f, 0x3e,
    0x59, 0x06, 0xfb, 0x3d, 0x00, 0x53, 0x0a, 0x3e, 0x80, 0xb2,
    0x00, 0xbe, 0x3f, 0xc2, 0x0e, 0x3d, 0xef, 0x3c, 0x8c, 0xbd,
    0xc1, 0x00, 0x95, 0x3d, 0xfd, 0xeb, 0x1a, 0xbd, 0x1c, 0xa1,
    0x03, 0x3e, 0x8f, 0xfa, 0x4e, 0xbd, 0xd2, 0xaf, 0xca, 0x3d,
    0xcd, 0x50, 0x6b, 0x3d, 0xa8, 0x61, 0xe9, 0xbd, 0x41, 0xf8,
    0x14, 0x3e, 0x9d, 0xfe, 0x18, 0x3e, 0xee, 0x83, 0x9d, 0xbd,
    0xe1, 0x35, 0xa3, 0xbc, 0x46, 0x83, 0xb7, 0x3d, 0x33, 0x08,
    0xae, 0xbd, 0x77, 0xf3, 0x94, 0xbd, 0x21, 0x20, 0xb0, 0xbd,
    0xa0, 0x26, 0xa1, 0x3d, 0x36, 0x45, 0xb4, 0xbd, 0xb2, 0xb9,
    0x9c, 0xbd, 0xd2, 0xbe, 0x1c, 0xbe, 0xfe, 0xe5, 0x4e, 0xbc,
    0xbe, 0xdb, 0xb9, 0x3d, 0x7d, 0x9d, 0x80, 0xba, 0xc0, 0x77,
    0x22, 0xbd, 0xde, 0x45, 0x32, 0xbe, 0x78, 0xab, 0x2d, 0x3e,
    0x02, 0xdf, 0x12, 0xbe, 0xe4, 0x5b, 0x25, 0x3c, 0xf5, 0xb3,
    0x85, 0xbd, 0xeb, 0xc6, 0x27, 0x3e, 0xd2, 0x8f, 0xab, 0xbd,
    0xe7, 0x4d, 0xe2, 0x3d, 0x84, 0x0c, 0xa7, 0x3e, 0x03, 0xe5,
    0x9a, 0x3b, 0x8e, 0xc8, 0x05, 0xbe, 0x89, 0x93, 0x81, 0xbc,
    0xf4, 0x6b, 0x90, 0x3d, 0x2d, 0x21, 0x89, 0xbd, 0x65, 0xdd,
    0x4b, 0xbe, 0xd9, 0x54, 0x36, 0x3d, 0xed, 0xd7, 0xfb, 0xbb,
    0xf7, 0x9e, 0x67, 0x3d, 0x9c, 0x01, 0xa3, 0x3c, 0x82, 0x9a,
    0x99, 0xbb, 0x3d, 0xb5, 0x2b, 0x3d, 0x08, 0x57, 0x48, 0xbe,
    0x36, 0x40, 0x80, 0xbd, 0x6c, 0xd0, 0x55, 0xbe, 0x5b, 0x5c,
    0xa3, 0xbc, 0x2d, 0xed, 0x5d, 0x3e, 0x06, 0xe7, 0x93, 0xbe,
    0x3d, 0xc2, 0x80, 0x3d, 0xde, 0x09, 0x81, 0xbd, 0xe3, 0xb3,
    0x07, 0xbd, 0x62, 0xb4, 0x89, 0xbd, 0xb1, 0x10, 0x50, 0xbd,
    0x9a, 0x81, 0x19, 0xbd, 0x02, 0xc5, 0xc4, 0x3d, 0xb0, 0xaf,
    0x09, 0xbe, 0xbf, 0x21, 0x10, 0x3e, 0xd1, 0x1d, 0x9a, 0x3d,
    0x23, 0x96, 0x33, 0xbd, 0x40, 0xba, 0x58, 0x3d, 0x3c, 0xd9,
    0xc4, 0xbd, 0xda, 0x54, 0xd9, 0x3d, 0x38, 0xbf, 0x5c, 0xbd,
    0x4e, 0x4a, 0xca, 0xbd, 0x99, 0x9d, 0x36, 0x3d, 0x62, 0xa3,
    0x08, 0x3e, 0x06, 0xbc, 0x81, 0x3d, 0xd4, 0xef, 0x58, 0xbe,
    0x90, 0xbc, 0x9f, 0xbd, 0xea, 0x18, 0xb7, 0x3c, 0x78, 0xab,
    0x78, 0x3d, 0xad, 0xbe, 0x01, 0xbe, 0x44, 0x61, 0x59, 0x3e,
    0x37, 0x17, 0x6f, 0xbd, 0x42, 0xd1, 0x23, 0x3d, 0x56, 0x5f,
    0x96, 0x3c, 0xaf, 0xd1, 0x2c, 0x3a, 0x0f, 0x42, 0xc6, 0x3d,
    0xc7, 0x3a, 0x28, 0x3d, 0xab, 0x9d, 0x19, 0xbd, 0x97, 0x04,
    0xfc, 0x3c, 0x6b, 0x6f, 0xef, 0x3c, 0xc2, 0x6e, 0x4f, 0xbd,
    0x31, 0x57, 0x4b, 0xbd, 0xd8, 0xa7, 0xd0, 0xbd, 0x6d, 0x37,
    0x20, 0x3e, 0xa7, 0x8c, 0x9e, 0x3d, 0x3a, 0x87, 0xb8, 0x3d,
    0x09, 0x28, 0x25, 0xbe, 0xd4, 0x63, 0x4b, 0x3d, 0x67, 0xe7,
    0x22, 0xbc, 0xb3, 0x22, 0x74, 0xba, 0xd0, 0x21, 0x1f, 0x3d,
    0xe0, 0xa5, 0x16, 0xbe, 0xec, 0x03, 0x85, 0xbc, 0x44, 0x0b,
    0x2c, 0xbd, 0x17, 0xac, 0xf7, 0x3c, 0xb6, 0x1c, 0x00, 0x3e,
    0x17, 0x6d, 0x6d, 0x3e, 0x09, 0xc6, 0xce, 0x3d, 0xdc, 0x91,
    0xe8, 0x3d, 0xde, 0xbf, 0x9c, 0x3e, 0xb4, 0xe5, 0xa1, 0xbd,
    0xf5, 0xe5, 0x1e, 0xbe, 0x91, 0xa7, 0x37, 0xbc, 0xf4, 0x9e,
    0x61, 0x3e, 0x2f, 0x3a, 0x70, 0xbd, 0xab, 0x01, 0xb5, 0xbd,
    0xbb, 0x58, 0xb2, 0xbb, 0xf7, 0x4d, 0x19, 0x3e, 0x5e, 0xc5,
    0x52, 0x3d, 0xb7, 0xd4, 0x0a, 0xbe, 0x68, 0xc6, 0x64, 0xbb,
    0xa7, 0x18, 0xe7, 0x3d, 0x36, 0x16, 0x2c, 0xbd, 0xf2, 0xc9,
    0x90, 0x3d, 0x04, 0x52, 0x13, 0xbd, 0xd6, 0xb6, 0x84, 0xbd,
    0xbd, 0x3a, 0xf8, 0x3d, 0x13, 0x82, 0x17, 0xbe, 0x0b, 0xcf,
    0x91, 0x3c, 0x3d, 0x7b, 0x60, 0xbc, 0xd1, 0x7c, 0x39, 0xbd,
    0x9f, 0x00, 0xc5, 0x3a, 0x1d, 0x36, 0x96, 0x3d, 0xac, 0xa7,
    0x9c, 0xbd, 0xdd, 0x55, 0x0b, 0xbc, 0xca, 0xeb, 0xbd, 0xbc,
    0x38, 0x82, 0x97, 0x3d, 0x4c, 0xe1, 0x29, 0x3d, 0x04, 0x9a,
    0x65, 0xbd, 0x99, 0x89, 0x86, 0xbc, 0x51, 0xe0, 0x8e, 0xbd,
    0x08, 0x99, 0x34, 0xbb, 0xbe, 0xad, 0x55, 0xbb, 0x87, 0x3e,
    0x5c, 0xbc, 0x5d, 0x08, 0xe1, 0xbc, 0x24, 0x7d, 0x9d, 0x3d,
    0xea, 0x2b, 0xca, 0x3d, 0x0e, 0x63, 0xa2, 0xbd, 0xef, 0x89,
    0xa1, 0x3b, 0x3c, 0x36, 0x0c, 0xbd, 0x2a, 0x89, 0x8b, 0xbd,
    0x5f, 0x7d, 0x83, 0xbd, 0x0e, 0xa3, 0x0b, 0x3e, 0x87, 0x36,
    0xc6, 0xbc, 0x9f, 0xdd, 0x9d, 0xbd, 0xa6, 0x4e, 0xb7, 0x3d,
    0xc2, 0xc6, 0x33, 0x3d, 0x36, 0x5c, 0x57, 0x3e, 0xeb, 0xdb,
    0xf6, 0xbc, 0x31, 0x34, 0x9e, 0xbd, 0x1c, 0x56, 0x03, 0xbd,
    0x0e, 0xf7, 0x10, 0x3d, 0x4e, 0x78, 0x84, 0xbc, 0x78, 0x95,
    0x10, 0xbe, 0x6f, 0x41, 0x20, 0xbe, 0x24, 0x24, 0x2a, 0x3e,
    0x5a, 0x91, 0xe6, 0x3d, 0x60, 0x2b, 0x00, 0x3e, 0x7d, 0xb4,
    0xcc, 0xbd, 0x5a, 0xf0, 0xc4, 0x3d, 0x56, 0x84, 0x9f, 0x3d,
    0xf6, 0x27, 0xec, 0xbd, 0x4d, 0x81, 0x60, 0xbd, 0x5d, 0x4b,
    0x05, 0xbc, 0x9e, 0x37, 0x19, 0x3c, 0xbb, 0x26, 0xa6, 0xbd,
    0x54, 0xf7, 0x4c, 0x3d, 0x8e, 0xcf, 0x0c, 0x3e, 0x58, 0x9e,
    0x77, 0x3e, 0xb3, 0x68, 0x7f, 0x3e, 0xa4, 0x12, 0xaa, 0x3c,
    0x6b, 0x74, 0x37, 0x3e, 0xa1, 0xf7, 0xf3, 0xbd, 0x33, 0x34,
    0xcd, 0x3c, 0xec, 0x38, 0xb4, 0x3d, 0x5b, 0x5c, 0xf3, 0x3d,
    0x9f, 0x7d, 0x97, 0xbd, 0xf0, 0x63, 0x0b, 0xbe, 0xde, 0x19,
    0x57, 0x3d, 0x09, 0x67, 0x20, 0x3e, 0xe2, 0xa0, 0xa1, 0x3d,
    0xd3, 0x25, 0x1b, 0xbe, 0x90, 0x5c, 0x15, 0x3e, 0x45, 0x74,
    0x9a, 0x3d, 0x61, 0x10, 0x32, 0xbe, 0x79, 0xd5, 0x9b, 0x3b,
    0x95, 0x27, 0x08, 0xbe, 0x4d, 0xd4, 0x7c, 0x3c, 0x20, 0xfd,
    0x22, 0x3e, 0xbc, 0xe1, 0x35, 0xbe, 0x7d, 0xf5, 0xe1, 0x3d,
    0x3f, 0x1c, 0xca, 0x3c, 0xc0, 0x82, 0x2c, 0x3d, 0x83, 0x07,
    0x8c, 0x3d, 0x9e, 0xe0, 0xa7, 0x3d, 0x48, 0x82, 0x38, 0x3e,
    0x8c, 0xc0, 0x0a, 0xbd, 0xfc, 0xb1, 0xe8, 0xbd, 0xf1, 0xfb,
    0x41, 0x3d, 0x34, 0x8c, 0x68, 0xbd, 0x6a, 0xb3, 0x4a, 0xbd,
    0x5a, 0x72, 0x73, 0x3c, 0x1f, 0x58, 0xc8, 0xbd, 0x46, 0x01,
    0xa7, 0x3d, 0xd1, 0x1a, 0xf4, 0x3d, 0x25, 0x6b, 0x62, 0x3d,
    0x5d, 0x0d, 0x4a, 0xbc, 0xfe, 0x26, 0x77, 0xbc, 0x15, 0x6d,
    0x95, 0x3d, 0x5c, 0xda, 0x42, 0xbc, 0xaa, 0x1a, 0x92, 0x3d,
    0x4b, 0xe5, 0x00, 0xbe, 0x58, 0x07, 0xd2, 0xbd, 0x84, 0xb1,
    0x53, 0xbc, 0x91, 0x6b, 0x90, 0x3c, 0x74, 0x35, 0xa5, 0xbd,
    0xeb, 0x90, 0xb1, 0xbd, 0x46, 0xad, 0xad, 0x3d, 0x36, 0x91,
    0x2c, 0xbd, 0x5b, 0xb1, 0x5f, 0x3d, 0x2b, 0x15, 0x9f, 0x3d,
    0xd1, 0x5f, 0xce, 0xbd, 0x02, 0x77, 0xd1, 0xbd, 0xc0, 0x97,
    0xf6, 0x3d, 0xad, 0x58, 0xcf, 0x3c, 0xb4, 0x2e, 0xa5, 0x3c,
    0x4c, 0x76, 0xda, 0xbd, 0x57, 0x7a, 0x5f, 0x3e, 0x47, 0x2f,
    0x13, 0x3d, 0x19, 0xc9, 0x14, 0xbe, 0xf8, 0x61, 0x92, 0x3c,
    0x6f, 0x53, 0x24, 0xbc, 0x6d, 0x8f, 0x64, 0x3d, 0xc5, 0x1d,
    0xea, 0xbd, 0x64, 0x3c, 0x13, 0x3d, 0x21, 0x83, 0x35, 0xbe,
    0x7c, 0xe1, 0x39, 0x3d, 0x27, 0x9d, 0xa4, 0xbd, 0xa0, 0x76,
    0xc5, 0x3d, 0x98, 0x41, 0x05, 0x3e, 0xac, 0x73, 0x81, 0x3e,
    0x5b, 0xb3, 0x15, 0x3e, 0x60, 0xe4, 0x25, 0x3e, 0xd0, 0x1e,
    0x56, 0x3e, 0xd8, 0xd8, 0xe3, 0xbd, 0xc7, 0x9a, 0x05, 0xbe,
    0x87, 0xee, 0xb0, 0x3b, 0x6b, 0x43, 0x17, 0x3d, 0x29, 0xe0,
    0x8d, 0xbc, 0x65, 0xb9, 0x45, 0x3d, 0xd8, 0xab, 0x07, 0x3e,
    0x94, 0xbe, 0x4b, 0x3c, 0x18, 0x3f, 0x39, 0x3e, 0x5a, 0xae,
    0x2c, 0xbe, 0x74, 0x7e, 0x28, 0x3a, 0xd5, 0x8c, 0x51, 0x3c,
    0xb3, 0xa5, 0xdb, 0xbd, 0x20, 0xab, 0x74, 0x3d, 0x37, 0x24,
    0x10, 0xbd, 0xf7, 0x48, 0xfa, 0xbc, 0xf4, 0xfd, 0xb7, 0xbc,
    0x27, 0xee, 0x49, 0x3d, 0xec, 0x92, 0x02, 0x3e, 0xa6, 0xc4,
    0x6c, 0x3d, 0x8b, 0xc3, 0x8b, 0x3d, 0xab, 0x05, 0x02, 0x3d,
    0xbb, 0x5d, 0x22, 0x3d, 0x39, 0x6a, 0x1e, 0xbd, 0x69, 0xbf,
    0x58, 0x3d, 0xb9, 0x07, 0xa3, 0xbc, 0x8d, 0x3f, 0x07, 0x3d,
    0xd5, 0xbd, 0x88, 0xbd, 0x34, 0xf3, 0xef, 0xbd, 0x89, 0x47,
    0x02, 0xbe, 0x5f, 0xa7, 0x23, 0xbe, 0x66, 0xdc, 0x91, 0x3d,
    0xad, 0xb1, 0x8e, 0x3d, 0x53, 0xca, 0x58, 0x3d, 0x61, 0x3d,
    0x18, 0x3b, 0x68, 0x57, 0x8d, 0x3b, 0x5d, 0xbb, 0x2e, 0x3c,
    0x8b, 0xe3, 0x55, 0xbd, 0x56, 0xc4, 0x34, 0x3d, 0xcb, 0x9f,
    0x0b, 0xbe, 0x9a, 0xc9, 0xf0, 0xbd, 0xf3, 0xf4, 0x78, 0xbd,
    0xad, 0xf8, 0xf7, 0x3c, 0xbe, 0xfb, 0x28, 0x3d, 0x97, 0xb3,
    0x95, 0xbb, 0x98, 0xcb, 0x31, 0x3e, 0x60, 0x28, 0x45, 0xbd,
    0xa4, 0xb4, 0x11, 0x3e, 0x30, 0x8a, 0x3d, 0x3d, 0x65, 0xe7,
    0x93, 0xbd, 0x87, 0x59, 0x29, 0xbd, 0x0e, 0x17, 0x9e, 0x3c,
    0x45, 0x66, 0x07, 0xbe, 0x8d, 0x15, 0x36, 0xbe, 0x36, 0x02,
    0xd1, 0xbd, 0x3d, 0x88, 0x1b, 0x3e, 0xe7, 0x9f, 0x7e, 0x3d,
    0x33, 0xb5, 0x8c, 0x3d, 0xf2, 0x29, 0xdb, 0xbd, 0x54, 0x47,
    0x7b, 0x3d, 0x8a, 0xab, 0xae, 0x3d, 0xd8, 0xaf, 0x72, 0xbc,
    0x39, 0xde, 0x4a, 0x3d, 0x3d, 0xa8, 0x9e, 0xbd, 0xa8, 0xeb,
    0x9c, 0x3d, 0xd1, 0x18, 0xa5, 0xbd, 0xd1, 0x00, 0xfc, 0x3c,
    0x2d, 0xc1, 0xca, 0x3c, 0x97, 0xb5, 0x20, 0x3e, 0xb0, 0x6d,
    0xad, 0x3d, 0x3f, 0x12, 0xa5, 0x3d, 0xf4, 0x56, 0x96, 0x3e,
    0x4b, 0x01, 0x8f, 0x3d, 0xd1, 0xaf, 0xa1, 0xbd, 0x62, 0x5c,
    0xe4, 0x3d, 0x2a, 0x40, 0xce, 0x3d, 0x23, 0x5c, 0x9d, 0xbd,
    0xb6, 0x93, 0x14, 0xbd, 0x1b, 0x80, 0xc8, 0x3d, 0x7b, 0xaa,
    0x8c, 0x3d, 0xf2, 0xd1, 0x0c, 0x3e, 0xad, 0xf8, 0xd8, 0xbc,
    0x8b, 0x32, 0xe1, 0x3c, 0x7c, 0x7b, 0x57, 0xbd, 0xfc, 0xdb,
    0x8c, 0xbd, 0x4d, 0x1d, 0xd3, 0x3d, 0x95, 0x75, 0xa5, 0xbd,
    0xc2, 0xd5, 0x5f, 0x3d, 0x9f, 0x15, 0xb7, 0xbd, 0x40, 0xca,
    0x29, 0xbe, 0x69, 0xa1, 0x3d, 0xbd, 0x71, 0x04, 0x78, 0xbd,
    0x53, 0xdc, 0xfb, 0xbd, 0xf1, 0xf1, 0x3c, 0x3d, 0xfe, 0x5e,
    0x3f, 0x3e, 0xbb, 0x74, 0x6d, 0xbd, 0xf5, 0xc9, 0x41, 0x3e,
    0x2f, 0x1e, 0x80, 0x3c, 0xa3, 0x0b, 0x03, 0xbd, 0x68, 0xb9,
    0xc3, 0xbc, 0xd3, 0x11, 0x77, 0xbd, 0x4b, 0x79, 0x00, 0x3e,
    0x69, 0xd2, 0xef, 0xbd, 0x00, 0x14, 0x47, 0x3c, 0x76, 0xf7,
    0xde, 0x3d, 0xf3, 0xd4, 0x6d, 0x3e, 0x5d, 0xda, 0x3c, 0xbe,
    0x3a, 0x06, 0x2d, 0xbe, 0x71, 0x82, 0x53, 0xbe, 0x12, 0xd2,
    0xe3, 0xbd, 0x3a, 0x01, 0x0b, 0xbe, 0xf3, 0xe1, 0x86, 0xbc,
    0x00, 0xb5, 0xc8, 0x3d, 0x30, 0xcf, 0xcc, 0x3d, 0x1a, 0xc9,
    0x97, 0xbd, 0xe7, 0x97, 0x04, 0x3e, 0x1c, 0x16, 0xaa, 0xbd,
    0x96, 0x40, 0xe3, 0xbd, 0x20, 0x09, 0xf8, 0x3b, 0x9c, 0x90,
    0xbb, 0xbd, 0x7c, 0x15, 0x7e, 0x3e, 0x89, 0x03, 0x3f, 0x3c,
    0x70, 0xb0, 0x28, 0xbc, 0xee, 0x1b, 0xcd, 0x3d, 0x0c, 0x6d,
    0xbc, 0xbc, 0x5e, 0x00, 0x6b, 0x3c, 0x4c, 0xab, 0x4a, 0xbd,
    0x05, 0xad, 0x1c, 0xba, 0x6c, 0x0e, 0x98, 0xbd, 0xaa, 0xaf,
    0xdf, 0x3c, 0xad, 0x0f, 0x68, 0xbd, 0x3f, 0x86, 0x51, 0xbe,
    0xa9, 0x87, 0x28, 0xbd, 0x9b, 0x3f, 0x42, 0x3c, 0x9f, 0x19,
    0x53, 0x3d, 0xe1, 0x54, 0x94, 0xbd, 0xaa, 0x75, 0x19, 0x3d,
    0x8c, 0xde, 0x81, 0xbd, 0x14, 0x1e, 0xa7, 0x3d, 0x2a, 0x69,
    0xf7, 0x3b, 0x60, 0x1b, 0x0b, 0x3d, 0xb1, 0x35, 0x24, 0x3d,
    0x66, 0x93, 0x19, 0x3d, 0xe9, 0x0e, 0xda, 0xbd, 0x17, 0xad,
    0x66, 0x3e, 0xb0, 0xc0, 0x1a, 0xbe, 0xf7, 0xb5, 0x6c, 0xbe,
    0xb9, 0x18, 0x2f, 0xbd, 0xb3, 0x7f, 0xa3, 0xbd, 0x89, 0x89,
    0x71, 0x3d, 0xc8, 0x05, 0x83, 0x3d, 0x02, 0x01, 0x43, 0xbe,
    0xd6, 0x4a, 0x22, 0xbd, 0x2b, 0x5e, 0x0a, 0x3e, 0xe1, 0xfb,
    0x55, 0xbe, 0xe6, 0x42, 0x8b, 0xbd, 0xf8, 0x13, 0x29, 0x3e,
    0xb9, 0xf5, 0x12, 0xbc, 0x13, 0xa5, 0xc5, 0xbd, 0x56, 0xf4,
    0x36, 0xbc, 0x8f, 0xef, 0x9e, 0x3d, 0xfb, 0x71, 0xb0, 0xbc,
    0x18, 0xab, 0x87, 0x3c, 0xa5, 0x67, 0x06, 0xbd, 0xbd, 0x60,
    0xd5, 0x3c, 0x63, 0xa9, 0x2c, 0xbe, 0xce, 0xef, 0x01, 0x3e,
    0xe9, 0xf7, 0xeb, 0x3b, 0xb8, 0x60, 0x3f, 0x3e, 0x8f, 0x53,
    0x84, 0xbd, 0x0d, 0x59, 0xbc, 0x3c, 0x1b, 0xbf, 0x8d, 0x3c,
    0xcf, 0x83, 0x43, 0xbb, 0x19, 0xe0, 0x86, 0x3d, 0x0e, 0xa7,
    0xd1, 0x3b, 0x62, 0xde, 0xf2, 0xbc, 0xfe, 0xff, 0x53, 0xbc,
    0x93, 0xb8, 0xf0, 0x3d, 0x3a, 0x41, 0xec, 0xbd, 0x60, 0x81,
    0x2a, 0xbe, 0xbf, 0x7c, 0xeb, 0xbd, 0xe1, 0x43, 0xd4, 0xbd,
    0x0b, 0x81, 0xab, 0xbd, 0x38, 0x54, 0x32, 0x3d, 0x1f, 0x96,
    0xc2, 0x3d, 0x2f, 0x2e, 0x22, 0xbd, 0x93, 0x1a, 0x45, 0xbe,
    0xda, 0x98, 0x68, 0x3b, 0x29, 0x14, 0x05, 0xbb, 0xb6, 0x2f,
    0x2b, 0xbd, 0xe4, 0x1d, 0x15, 0xbd, 0x6f, 0xdb, 0xef, 0xbd,
    0x91, 0x10, 0xa8, 0x3d, 0xf6, 0xc6, 0xac, 0x3c, 0x88, 0x50,
    0x10, 0xbc, 0x23, 0x71, 0x8e, 0x3d, 0x61, 0x96, 0x82, 0xbd,
    0x32, 0x58, 0x47, 0x3d, 0x6c, 0x25, 0x41, 0xbd, 0x81, 0x82,
    0xb8, 0xbc, 0xe0, 0x56, 0x13, 0x3e, 0x32, 0xad, 0x82, 0x3e,
    0x75, 0x92, 0xbd, 0x3c, 0x77, 0x72, 0x53, 0x3d, 0x24, 0xae,
    0xcc, 0xbd, 0x21, 0x95, 0x76, 0xbd, 0x36, 0x0f, 0x9a, 0x3d,
    0x1d, 0x3c, 0x4b, 0xb8, 0xaa, 0x51, 0x09, 0x3d, 0x55, 0xb1,
    0xa5, 0x3b, 0xba, 0x0a, 0xa8, 0xbd, 0x22, 0x74, 0x50, 0xbd,
    0xe5, 0x22, 0xe8, 0xbd, 0x4a, 0x46, 0x7e, 0x3c, 0xb7, 0xde,
    0x0e, 0x3d, 0xc9, 0x69, 0xc7, 0xba, 0xfa, 0x06, 0x0d, 0x3e,
    0xc7, 0xeb, 0xd5, 0xbd, 0x0d, 0xac, 0x89, 0xbe, 0xc9, 0x2a,
    0xe9, 0x3b, 0xe3, 0x77, 0xf6, 0x3d, 0x01, 0x4a, 0x97, 0x3d,
    0x00, 0xab, 0x12, 0xbe, 0xa6, 0xc4, 0x70, 0xba, 0xa0, 0x4c,
    0x9f, 0x3d, 0x74, 0x4d, 0xe1, 0x3d, 0xae, 0x89, 0xcf, 0xbd,
    0x5f, 0x18, 0x13, 0xbe, 0x4b, 0xa1, 0xc8, 0xbd, 0x44, 0xb5,
    0xd4, 0x3d, 0x81, 0xbe, 0x86, 0xbd, 0xf0, 0xca, 0xf5, 0xbc,
    0x4c, 0x21, 0xef, 0xbd, 0x1e, 0xb5, 0xa3, 0x3d, 0x67, 0x5c,
    0xde, 0xbd, 0x12, 0x2b, 0xdd, 0x3b, 0x41, 0xd1, 0x4f, 0xbd,
    0x8e, 0x32, 0x0f, 0xbc, 0x63, 0xf3, 0x15, 0x3d, 0xc0, 0x67,
    0xbc, 0xbd, 0x7d, 0x6a, 0x8c, 0x3e, 0x28, 0x5d, 0x1a, 0xbd,
    0xf6, 0x09, 0x4c, 0xbe, 0xc3, 0xc7, 0x34, 0xbe, 0xf4, 0xef,
    0x17, 0xbd, 0xaa, 0x51, 0x5c, 0x3d, 0x3c, 0xed, 0xf0, 0xbd,
    0x52, 0x95, 0xff, 0xbd, 0x1e, 0xec, 0x0f, 0x3d, 0x9c, 0x65,
    0x4c, 0x3d, 0xa0, 0x10, 0xa1, 0xbd, 0xa5, 0xab, 0x3a, 0xbe,
    0xf4, 0x56, 0xbc, 0xbd, 0x33, 0x1d, 0x8d, 0xbd, 0x61, 0x8b,
    0xab, 0xbb, 0x1f, 0x4c, 0xd0, 0xbd, 0x37, 0x6c, 0xc7, 0x3d,
    0x31, 0xd7, 0x7e, 0x3c, 0xe9, 0x7b, 0x09, 0xbe, 0x8e, 0x2b,
    0x70, 0x3d, 0xd6, 0xd9, 0xe5, 0xbd, 0xaa, 0x92, 0xfa, 0xbd,
    0x7c, 0xb1, 0x64, 0xbc, 0x04, 0x35, 0x27, 0xbd, 0x79, 0x56,
    0x50, 0x3d, 0x40, 0x9a, 0x02, 0x3d, 0x9a, 0x33, 0x92, 0xbd,
    0xc2, 0xec, 0x96, 0xbc, 0xef, 0xf4, 0xe5, 0xbc, 0xbe, 0x7c,
    0x7e, 0x3d, 0x2c, 0x90, 0xc9, 0xbc, 0xbd, 0x8f, 0x8e, 0xbc,
    0x99, 0x97, 0x07, 0xbd, 0x2f, 0xc6, 0xea, 0x3d, 0x48, 0x4d,
    0xa4, 0xbd, 0x40, 0x99, 0x0c, 0xbe, 0x3d, 0xad, 0x9b, 0xbd,
    0xb8, 0x41, 0x08, 0xbb, 0x78, 0x80, 0xe5, 0x3b, 0xa6, 0xf6,
    0xe6, 0x3b, 0xb3, 0x3b, 0x4e, 0x3e, 0x8f, 0x57, 0xf0, 0x3a,
    0x32, 0xd1, 0x0c, 0x3e, 0x00, 0x15, 0xdc, 0xbd, 0x05, 0x80,
    0x98, 0xbd, 0xb8, 0xbe, 0xec, 0xbc, 0xf8, 0x55, 0x11, 0xbd,
    0xcd, 0xd7, 0x01, 0xbe, 0x7d, 0xb5, 0x56, 0x3d, 0x3c, 0x98,
    0xca, 0x3b, 0x13, 0x08, 0x96, 0xbe, 0x38, 0x5b, 0x0a, 0xbe,
    0x07, 0x3c, 0xa3, 0x3c, 0xf9, 0x96, 0x89, 0xbd, 0x16, 0x2a,
    0x56, 0xbc, 0xef, 0x45, 0xbf, 0x3b, 0xd0, 0x24, 0x87, 0xbd,
    0x4c, 0x32, 0xed, 0x3d, 0xc2, 0xf5, 0xb9, 0xbd, 0x9d, 0xc1,
    0xe7, 0xbd, 0xb4, 0x86, 0x06, 0x3d, 0xca, 0x4e, 0x21, 0x3c,
    0x34, 0xb9, 0xbd, 0xbd, 0x18, 0x2f, 0x8c, 0xbc, 0x3c, 0x77,
    0x09, 0x3e, 0xd7, 0xfd, 0x8f, 0x3d, 0x3c, 0x69, 0x02, 0xbd,
    0xdf, 0x8a, 0xb5, 0x3e, 0x88, 0x2c, 0x00, 0xbe, 0xe5, 0xb5,
    0x32, 0x3d, 0x61, 0xf2, 0x87, 0x3d, 0x19, 0x48, 0xd3, 0x3c,
    0xd3, 0x49, 0xaa, 0x3d, 0x7c, 0x10, 0x1f, 0xbe, 0x67, 0x74,
    0x39, 0x3e, 0x25, 0x17, 0x39, 0x3e, 0x71, 0xe7, 0x70, 0x3e,
    0xa2, 0x44, 0x38, 0x3c, 0x15, 0xf5, 0x5c, 0x3e, 0xda, 0xc2,
    0x22, 0xbe, 0xa2, 0x6c, 0x68, 0x3d, 0xe0, 0xd6, 0xd1, 0xbd,
    0x4f, 0xee, 0x8b, 0x3c, 0xc3, 0xdd, 0x64, 0x3e, 0x62, 0xb2,
    0xe2, 0xbd, 0x9d, 0x7c, 0x4d, 0x3e, 0xe0, 0x7f, 0x67, 0x3e,
    0xe8, 0x02, 0x90, 0x3c, 0xfa, 0x60, 0x52, 0xbb, 0xce, 0x75,
    0xde, 0xbd, 0x8e, 0x0e, 0xd2, 0xbd, 0x35, 0x93, 0xb4, 0x3d,
    0xe1, 0x8a, 0xde, 0x3d, 0xce, 0x4c, 0x46, 0x3e, 0x5b, 0x7a,
    0x99, 0xbd, 0x0e, 0x7a, 0xff, 0x3d, 0x86, 0x86, 0x1e, 0xbe,
    0x07, 0xbd, 0x3b, 0x3b, 0xe0, 0xf2, 0xe1, 0x3d, 0x51, 0x28,
    0x02, 0x3e, 0x1d, 0x6f, 0x36, 0x3d, 0xfd, 0x74, 0xa5, 0xbd,
    0xdf, 0x66, 0xc8, 0xbd, 0x79, 0xc9, 0x21, 0x3e, 0xd1, 0x14,
    0xb1, 0x3d, 0x36, 0xb9, 0x36, 0xbe, 0x1c, 0xef, 0x3b, 0x3e,
    0x53, 0xb7, 0xcf, 0x3d, 0xee, 0x31, 0x4d, 0x3e, 0xbf, 0x4f,
    0x06, 0x3e, 0x80, 0x85, 0x0c, 0x3d, 0x57, 0x1f, 0x5a, 0xbc,
    0x56, 0x17, 0xe5, 0xbc, 0x3d, 0x29, 0x6d, 0xbd, 0x0f, 0x76,
    0x4a, 0x3d, 0x46, 0xf6, 0x26, 0x3e, 0xed, 0x4b, 0x34, 0xbe,
    0x6b, 0x93, 0xb6, 0x3b, 0x8d, 0x03, 0xc8, 0x3d, 0x0b, 0x1d,
    0x70, 0xbd, 0x7d, 0x0f, 0x3e, 0xbb, 0xe2, 0x17, 0x94, 0xbd,
    0x17, 0x96, 0xaf, 0x3d, 0xd5, 0x32, 0x7f, 0x3d, 0x76, 0x55,
    0x79, 0x3d, 0xc2, 0xa8, 0x83, 0x3d, 0x77, 0xbc, 0xa5, 0x3d,
    0x62, 0x20, 0x94, 0x3d, 0x04, 0xeb, 0x2b, 0xbd, 0xda, 0x45,
    0xa7, 0x3d, 0x36, 0x78, 0x30, 0xbe, 0xdd, 0x91, 0xbe, 0x3c,
    0x34, 0x2d, 0x52, 0xbd, 0xa9, 0x15, 0x59, 0xbc, 0xd0, 0x3d,
    0x6e, 0x3e, 0x9a, 0xd1, 0x11, 0x3e, 0xe8, 0xcf, 0x26, 0xbe,
    0x31, 0x23, 0xfe, 0x3d, 0xf5, 0x94, 0x2e, 0x3e, 0x3b, 0xc6,
    0x13, 0x3d, 0x69, 0xb2, 0x6e, 0xbd, 0xaf, 0x7c, 0xd0, 0x3d,
    0xd8, 0xee, 0x24, 0x3d, 0x93, 0x01, 0x3b, 0xbe, 0xb9, 0xb2,
    0x12, 0xbe, 0xa6, 0x58, 0x6d, 0x3c, 0x51, 0x38, 0x76, 0xbd,
    0x41, 0xcd, 0xe0, 0xb8, 0x3c, 0xfa, 0x16, 0x3d, 0x75, 0x99,
    0xe8, 0x3d, 0x37, 0x0c, 0x8c, 0xbc, 0xde, 0x05, 0x88, 0xbd,
    0xf6, 0xd1, 0x9d, 0x3d, 0x08, 0x6c, 0x06, 0xbe, 0xc5, 0xab,
    0x01, 0xbe, 0x4f, 0xf0, 0xe3, 0x3c, 0xdc, 0xc5, 0x80, 0xbd,
    0x04, 0x01, 0x49, 0x3e, 0xce, 0x07, 0x18, 0x3e, 0xe7, 0xd5,
    0x2e, 0x3d, 0x2a, 0x8c, 0xe1, 0x3c, 0x5a, 0xb2, 0xae, 0x3d,
    0xa1, 0x27, 0x94, 0x3d, 0xa3, 0x57, 0x61, 0x3d, 0xf6, 0x30,
    0x31, 0x3e, 0x58, 0x45, 0xf8, 0xbc, 0xe2, 0x16, 0x07, 0xbd,
    0xc6, 0xd4, 0x06, 0xbe, 0xeb, 0x6f, 0x7a, 0x3c, 0x00, 0xa4,
    0xc1, 0x3d, 0x40, 0x43, 0xe4, 0x3d, 0x56, 0x32, 0x16, 0x3d,
    0x93, 0xf5, 0xef, 0xbc, 0x0a, 0x20, 0x18, 0x3d, 0x5b, 0x05,
    0x32, 0xbc, 0xe6, 0x9a, 0xbe, 0x3d, 0xee, 0xdc, 0x63, 0xbd,
    0xd6, 0xcf, 0xd2, 0xbd, 0xe6, 0x42, 0x86, 0x3e, 0xd3, 0x71,
    0x17, 0x3d, 0xad, 0xaf, 0xe7, 0x3d, 0xbc, 0xc4, 0x52, 0x3e,
    0x8f, 0x9a, 0x42, 0x3e, 0x7a, 0xc8, 0x6b, 0x3d, 0x3c, 0x91,
    0x33, 0xbe, 0x3e, 0x35, 0x84, 0xbd, 0x24, 0xc0, 0x80, 0x3d,
    0x4b, 0x29, 0x3b, 0xbe, 0x12, 0xda, 0xbc, 0xbc, 0x32, 0xdb,
    0x82, 0xbd, 0xc5, 0x11, 0x57, 0x3d, 0x2d, 0x84, 0x5e, 0xbc,
    0x50, 0x40, 0x4c, 0xbe, 0xac, 0x87, 0x18, 0xbe, 0x25, 0xbf,
    0xcb, 0x3d, 0x7d, 0x96, 0xcc, 0xbd, 0x75, 0xd5, 0x0b, 0xbe,
    0x21, 0xaf, 0x40, 0x3c, 0x1b, 0x28, 0x25, 0x3e, 0xb4, 0x48,
    0x37, 0xbe, 0x35, 0x64, 0x86, 0x3d, 0x0f, 0x41, 0xce, 0x3c,
    0x1c, 0x6a, 0x35, 0xbc, 0xf4, 0xfa, 0x65, 0x3c, 0xe1, 0x58,
    0x2d, 0xbb, 0x0e, 0x53, 0x1c, 0x3e, 0x9a, 0xf0, 0xc3, 0x3d,
    0x5c, 0x6a, 0x3d, 0x3e, 0x79, 0x59, 0x62, 0xbe, 0x7b, 0x83,
    0x4d, 0x3d, 0x69, 0xfd, 0x5c, 0x3e, 0x19, 0x24, 0xd7, 0xbb,
    0x38, 0x36, 0xa1, 0x3d, 0x68, 0x34, 0x6c, 0x3e, 0xf7, 0x97,
    0xa4, 0xbc, 0xd2, 0xfc, 0x42, 0x3d, 0xee, 0xb8, 0x02, 0xbc,
    0xa5, 0xd2, 0x12, 0xbe, 0xc0, 0x42, 0x13, 0x3c, 0xd8, 0x8b,
    0xf1, 0x3d, 0x99, 0x99, 0xec, 0x3d, 0x0c, 0x44, 0x0a, 0x3e,
    0xa0, 0xd5, 0x96, 0x3d, 0x52, 0xd5, 0x03, 0x3e, 0x78, 0xe3,
    0xcd, 0x3d, 0xae, 0x6f, 0xe8, 0xbd, 0xdb, 0x4a, 0x97, 0x3d,
    0xfd, 0xe1, 0xe5, 0x3d, 0x63, 0x89, 0xa9, 0xbd, 0x5a, 0x51,
    0x95, 0x3e, 0xec, 0x8d, 0xac, 0x3c, 0x8f, 0x1c, 0x08, 0x3e,
    0xcd, 0xb1, 0x12, 0xbe, 0x79, 0x64, 0x8c, 0x3d, 0x63, 0x95,
    0x84, 0xbd, 0xb3, 0xe2, 0x52, 0x3e, 0xa8, 0x15, 0x56, 0x3d,
    0x2f, 0x8b, 0x39, 0x3c, 0x0a, 0xa8, 0xa0, 0xbb, 0x72, 0x37,
    0xa7, 0x3d, 0xa0, 0x0f, 0xe9, 0x3c, 0xaa, 0x1a, 0x9f, 0x3d,
    0xe8, 0xda, 0x91, 0x3c, 0x4a, 0xff, 0x44, 0x3e, 0x29, 0xfb,
    0xd1, 0xbc, 0x2c, 0x52, 0xb7, 0x3d, 0x6b, 0x24, 0x2c, 0x3d,
    0x9c, 0x02, 0x92, 0x3c, 0x56, 0x0a, 0x82, 0x3d, 0xd1, 0xee,
    0x83, 0xbd, 0x34, 0x9a, 0x3e, 0x3e, 0x4b, 0x93, 0x51, 0x3e,
    0x5e, 0x03, 0x0d, 0x3e, 0x96, 0x30, 0x5b, 0x3e, 0x13, 0xf9,
    0x10, 0x3e, 0x70, 0xea, 0x28, 0x3e, 0xab, 0x11, 0x8c, 0xbd,
    0xa4, 0x6a, 0xa7, 0xbd, 0xad, 0xac, 0x72, 0x3d, 0xf3, 0x96,
    0xc9, 0x3d, 0x39, 0xe3, 0x7e, 0xbd, 0x72, 0x42, 0xec, 0x3d,
    0x40, 0x4f, 0x72, 0xbd, 0xd3, 0xe1, 0x10, 0xbe, 0x5f, 0x77,
    0x60, 0x3d, 0x89, 0x39, 0x16, 0xbd, 0x8b, 0x5d, 0xbf, 0x3d,
    0xe3, 0x38, 0xc6, 0xbd, 0xb3, 0x2d, 0xdf, 0xba, 0x1c, 0x7c,
    0x9a, 0x3d, 0xe2, 0x1a, 0x96, 0x3d, 0xbf, 0x5b, 0xa8, 0x3d,
    0xfb, 0x14, 0x99, 0xbd, 0x38, 0x44, 0xa6, 0x3d, 0x89, 0x2c,
    0x6e, 0xbd, 0xc0, 0x55, 0x91, 0x3d, 0x12, 0xaf, 0x26, 0x3e,
    0xa8, 0x0d, 0x0a, 0x3e, 0x9f, 0x93, 0x07, 0x3e, 0xa4, 0x5b,
    0x21, 0xbd, 0x5f, 0xd8, 0x15, 0xbe, 0x8c, 0x19, 0x83, 0x3d,
    0xc4, 0xb2, 0x86, 0xbd, 0xab, 0x54, 0xa4, 0xbc, 0x5b, 0x7a,
    0xb5, 0x3c, 0xf1, 0x69, 0x5e, 0xb9, 0x22, 0xe0, 0x12, 0x3c,
    0x20, 0xa9, 0x74, 0xbc, 0x8b, 0x95, 0xc9, 0x3d, 0x20, 0x46,
    0x15, 0xbd, 0x70, 0x8e, 0x74, 0xbd, 0x28, 0x07, 0xa8, 0xbb,
    0xf2, 0x00, 0x3b, 0xbe, 0x71, 0x18, 0x9b, 0xbd, 0x09, 0x36,
    0xd3, 0xbc, 0xd0, 0x96, 0x4d, 0x3e, 0x58, 0x87, 0x24, 0x3e,
    0x76, 0x9a, 0xc1, 0xbd, 0xf4, 0xc6, 0x71, 0x3d, 0x07, 0x93,
    0x92, 0x3d, 0xde, 0x4b, 0xc3, 0x3c, 0x6d, 0x60, 0x12, 0x3d,
    0xb5, 0x8d, 0xbc, 0x3d, 0xcf, 0x19, 0xc9, 0xbd, 0x43, 0x52,
    0xd6, 0xbc, 0x3c, 0x3f, 0x36, 0xbe, 0x5f, 0x5d, 0x3e, 0xbc,
    0xd9, 0x9f, 0x25, 0xbd, 0x6f, 0x29, 0x3a, 0x3d, 0x85, 0x37,
    0x02, 0x3e, 0x7a, 0x12, 0xc8, 0xbd, 0x96, 0xbe, 0x5d, 0x3e,
    0xd9, 0x19, 0xd9, 0xbd, 0x89, 0xbd, 0xca, 0xbd, 0x4e, 0x68,
    0x1c, 0xbe, 0x59, 0xbe, 0x65, 0x3b, 0x2e, 0x89, 0x98, 0xbd,
    0x48, 0x3a, 0xf6, 0xbd, 0x04, 0xf3, 0xfa, 0xbd, 0xcb, 0xdb,
    0x52, 0x3e, 0xa1, 0x44, 0x38, 0x3e, 0x99, 0xc0, 0xea, 0xbd,
    0xab, 0xf7, 0x0c, 0xbe, 0x1a, 0xfb, 0x8e, 0xbd, 0xb7, 0x45,
    0x6c, 0x3d, 0x35, 0x06, 0x1e, 0xbd, 0x70, 0x66, 0x14, 0x3b,
    0x28, 0x1f, 0x82, 0xbc, 0xd7, 0x05, 0xba, 0x3c, 0x6b, 0x98,
    0xa8, 0xbb, 0xd0, 0xf2, 0xf2, 0x3d, 0xd3, 0x76, 0x9f, 0x3d,
    0x52, 0x44, 0x72, 0x3e, 0xe7, 0x21, 0x09, 0x3e, 0x34, 0x87,
    0xcd, 0x3d, 0x66, 0x21, 0x71, 0x3e, 0x26, 0xd0, 0x08, 0xbd,
    0x35, 0x76, 0xcb, 0xbd, 0x5a, 0x97, 0x0f, 0xbe, 0x67, 0xac,
    0xf9, 0x3d, 0x5e, 0xb7, 0x5a, 0xbd, 0x94, 0x4b, 0x03, 0xbe,
    0x04, 0xf5, 0x6a, 0x3d, 0xed, 0x96, 0xac, 0x3d, 0x0c, 0x5a,
    0x88, 0x3e, 0x14, 0xb7, 0xa3, 0x39, 0xd7, 0xc2, 0x1c, 0x3d,
    0xe0, 0xe0, 0x38, 0x3e, 0xa2, 0xc1, 0x3e, 0xbe, 0x4b, 0x0f,
    0x1d, 0xbc, 0xe0, 0xab, 0x32, 0x3c, 0xff, 0xc6, 0x93, 0xbd,
    0x59, 0xb1, 0xdb, 0xbd, 0xb4, 0xa3, 0x32, 0xbd, 0xce, 0x8b,
    0x1d, 0xbd, 0x60, 0x49, 0x22, 0xbe, 0x68, 0x34, 0xa8, 0xbd,
    0xce, 0xfc, 0x98, 0xbd, 0xa9, 0xaa, 0xc8, 0xbc, 0x4b, 0x7c,
    0xec, 0x3a, 0xde, 0x5a, 0xe2, 0x3d, 0xc5, 0xfd, 0x54, 0x3d,
    0xb9, 0xad, 0x78, 0x3d, 0x2a, 0xb0, 0x5e, 0xbd, 0x68, 0xe8,
    0x92, 0xbd, 0x55, 0xd5, 0x05, 0xbc, 0xb1, 0x42, 0x19, 0xbe,
    0x9b, 0x9b, 0x1a, 0x3e, 0x1c, 0x1e, 0xeb, 0xbc, 0x46, 0xcd,
    0xec, 0xbd, 0x0b, 0x05, 0x19, 0x3e, 0x69, 0xf2, 0x2f, 0x3d,
    0xe9, 0x58, 0xf1, 0x3d, 0xa3, 0x11, 0xbb, 0xbd, 0xb5, 0x45,
    0x88, 0xbd, 0xf4, 0x6b, 0x24, 0xbd, 0xb5, 0xbe, 0x78, 0x3d,
    0x14, 0x26, 0xc8, 0xbc, 0xd7, 0x29, 0x41, 0x3e, 0x77, 0x90,
    0x44, 0xbd, 0xa3, 0x9f, 0x1d, 0xbe, 0x2e, 0x1f, 0xfc, 0x3d,
    0xb2, 0x43, 0x9b, 0x3c, 0xd6, 0x19, 0xae, 0xbd, 0x35, 0xd6,
    0x13, 0xbe, 0x7f, 0xf9, 0x9e, 0xbd, 0x58, 0x25, 0x90, 0xbd,
    0xbe, 0x42, 0xd0, 0x3d, 0xd0, 0x6f, 0x9a, 0xbd, 0x25, 0x20,
    0xb8, 0xbd, 0xcf, 0xaf, 0x6c, 0xbd, 0x5e, 0x18, 0x2d, 0x3e,
    0xbe, 0x8d, 0xd7, 0x3d, 0x32, 0x95, 0xc3, 0x3c, 0x85, 0x17,
    0x2c, 0xbe, 0x2c, 0x25, 0xc7, 0xbd, 0x95, 0x98, 0x00, 0x3e,
    0x95, 0x85, 0x52, 0x3d, 0xbc, 0xa3, 0x85, 0x3c, 0xc5, 0x77,
    0x7a, 0xbd, 0xa9, 0x8c, 0x28, 0x3d, 0x8f, 0xca, 0x04, 0x3a,
    0x11, 0x72, 0x52, 0xbb, 0x28, 0xfc, 0x2d, 0x3e, 0x21, 0xc1,
    0x99, 0x3d, 0x38, 0x35, 0x26, 0x3c, 0x47, 0xcb, 0x2d, 0x3e,
    0xb1, 0xb1, 0x3a, 0x3e, 0x24, 0xca, 0xc0, 0xba, 0xb1, 0xd5,
    0xf7, 0xbd, 0x1b, 0xbb, 0x49, 0xbd, 0x6c, 0xfe, 0x79, 0x3e,
    0xad, 0xb4, 0x94, 0xbc, 0x4e, 0xd8, 0xa8, 0xbd, 0x55, 0x25,
    0xea, 0x3d, 0xf4, 0x96, 0xe0, 0x3d, 0x31, 0x5e, 0x70, 0x3e,
    0x50, 0x38, 0xc8, 0xbd, 0xf4, 0x03, 0x18, 0x3d, 0x16, 0x4e,
    0x03, 0x3e, 0x6a, 0x36, 0xcc, 0xbd, 0x52, 0x6c, 0xd6, 0x3d,
    0x67, 0x8f, 0x2a, 0xbe, 0x38, 0xeb, 0xf1, 0xbb, 0x66, 0x51,
    0xb7, 0xbd, 0x8a, 0x17, 0x45, 0xbc, 0x39, 0xa9, 0xf7, 0x3d,
    0x3e, 0x22, 0x1c, 0xbd, 0x49, 0x1c, 0xe1, 0xbc, 0xb3, 0x7e,
    0x47, 0x3c, 0x42, 0xa6, 0x9d, 0xbd, 0xac, 0xd7, 0x5b, 0x3d,
    0x9a, 0xe4, 0x31, 0x3d, 0x5e, 0xc1, 0xc2, 0x3d, 0x10, 0xad,
    0x04, 0x3c, 0x6e, 0xb0, 0xf4, 0x3d, 0x45, 0x57, 0xb4, 0xbd,
    0x42, 0xc0, 0x75, 0x3c, 0x4b, 0x11, 0x05, 0xbe, 0xde, 0xb8,
    0x58, 0x3e, 0x96, 0x28, 0x65, 0x3d, 0x5e, 0x0c, 0x93, 0xbc,
    0x9b, 0x15, 0x34, 0x3e, 0xe4, 0xbf, 0xcd, 0xbd, 0x37, 0x1b,
    0x38, 0xbd, 0x05, 0xd1, 0x8d, 0xbd, 0xe0, 0x39, 0x9f, 0xbd,
    0xb4, 0xc3, 0x30, 0x3c, 0xdc, 0xe6, 0x1e, 0xbe, 0x0f, 0xc0,
    0x3b, 0xbd, 0xce, 0xb3, 0xa0, 0x3d, 0x89, 0x4b, 0xcf, 0x3c,
    0x6a, 0x65, 0x00, 0xbc, 0x24, 0x61, 0xb8, 0x3c, 0x36, 0xa7,
    0x3e, 0x3d, 0x6d, 0x36, 0xad, 0x3d, 0xa0, 0x63, 0x9b, 0x3c,
    0x65, 0x4c, 0x93, 0xbd, 0xdb, 0xf3, 0x7f, 0xbd, 0xf3, 0xcf,
    0xaa, 0x3d, 0x76, 0xbd, 0x8f, 0xbd, 0x68, 0x14, 0xfe, 0xbc,
    0x0c, 0x02, 0x0a, 0xbc, 0x80, 0x02, 0x28, 0x3e, 0x46, 0x25,
    0x53, 0x3e, 0x03, 0xf6, 0xbd, 0xbc, 0x9d, 0xc4, 0x47, 0xbd,
    0xb2, 0x27, 0x16, 0xbe, 0x4a, 0xbd, 0x39, 0x3c, 0xeb, 0xfe,
    0x32, 0x3d, 0xa4, 0x8d, 0x60, 0x3b, 0xcb, 0x97, 0xf0, 0xbd,
    0x80, 0x15, 0x16, 0xbe, 0xf6, 0xca, 0xed, 0xbd, 0x92, 0x00,
    0x32, 0x3e, 0xc3, 0xf0, 0x17, 0x3e, 0xc8, 0x68, 0x3d, 0x3e,
    0x06, 0x05, 0x27, 0x3e, 0x29, 0x95, 0xca, 0x3d, 0xf1, 0x53,
    0x6d, 0x3e, 0x26, 0x45, 0xb4, 0x3d, 0xaf, 0xfc, 0x5d, 0xbe,
    0xa1, 0x5a, 0x96, 0x3d, 0x10, 0x03, 0xeb, 0x3d, 0x16, 0x71,
    0x72, 0xbd, 0x35, 0x57, 0x77, 0x3d, 0xdb, 0x8f, 0x10, 0x3e,
    0xc1, 0x0e, 0x55, 0x3c, 0x68, 0x5f, 0x4e, 0x3e, 0x25, 0x98,
    0xe3, 0xbd, 0xa0, 0x96, 0x82, 0x3d, 0x07, 0x93, 0x68, 0xbd,
    0x5e, 0x6d, 0x16, 0xbe, 0x6c, 0xac, 0xb4, 0x3d, 0xe7, 0xd1,
    0xbc, 0xbd, 0xec, 0xd3, 0x44, 0xbd, 0x11, 0xee, 0xb7, 0xbd,
    0x23, 0xdd, 0x19, 0x3d, 0xdb, 0xd3, 0xf6, 0x3d, 0x9d, 0xd7,
    0xe8, 0x3d, 0x40, 0x76, 0x9b, 0xbd, 0x11, 0x77, 0x6c, 0x3c,
    0xaf, 0x56, 0x01, 0xbe, 0x92, 0x09, 0x4b, 0x3d, 0xb8, 0x1a,
    0x0d, 0xbe, 0x8a, 0xae, 0xaa, 0xbd, 0x05, 0x13, 0x97, 0xbd,
    0x1b, 0xf9, 0x04, 0x3e, 0x09, 0x9b, 0x04, 0x3e, 0x64, 0xdc,
    0x08, 0xbd, 0x6f, 0xa8, 0x6e, 0x3e, 0x04, 0x1f, 0x50, 0xbe,
    0xa9, 0x57, 0xaa, 0xbd, 0xbc, 0xf6, 0x3e, 0xbe, 0xa0, 0x95,
    0xb2, 0xbd, 0x7d, 0x90, 0x2d, 0x3e, 0x0a, 0xe3, 0x43, 0xb9,
    0x21, 0xaa, 0x64, 0x3e, 0xe8, 0x91, 0xd7, 0x3d, 0xf6, 0xe4,
    0xc0, 0x3d, 0x04, 0x7b, 0x8f, 0xbb, 0x9e, 0x94, 0x8e, 0x3d,
    0xb5, 0x5d, 0x7d, 0x3d, 0x30, 0xa9, 0x01, 0xbc, 0x64, 0x71,
    0xba, 0x3d, 0x8d, 0x84, 0x2e, 0x3d, 0x68, 0xc5, 0xbd, 0x3c,
    0xb9, 0x4a, 0x37, 0xbd, 0x83, 0x3b, 0x08, 0xbe, 0x2f, 0x12,
    0xda, 0xbd, 0xca, 0xab, 0x3a, 0x3e, 0x27, 0xfc, 0xc8, 0x3c,
    0xed, 0x03, 0x05, 0x3d, 0x53, 0xc1, 0xc1, 0x3d, 0x52, 0xef,
    0xff, 0xbb, 0xcf, 0x3a, 0x3c, 0x3d, 0x66, 0x1f, 0xe0, 0x3d,
    0x4c, 0x09, 0x26, 0xbc, 0x81, 0xd0, 0xbc, 0xbc, 0xd3, 0xc1,
    0x88, 0x3d, 0xf8, 0x04, 0xc1, 0xbd, 0x4b, 0x69, 0x2a, 0x3c,
    0x77, 0x60, 0x66, 0xbd, 0xec, 0x58, 0x3f, 0x3d, 0xf7, 0x08,
    0x9c, 0xbd, 0x98, 0x3d, 0x9d, 0xbd, 0xf2, 0xf8, 0x96, 0xbd,
    0x79, 0xbb, 0x93, 0x3c, 0xbb, 0xe9, 0x2b, 0xbe, 0x7f, 0xc1,
    0xa7, 0xbd, 0x59, 0x94, 0xd3, 0x3d, 0x71, 0xee, 0x61, 0xbe,
    0x8e, 0x51, 0x3a, 0x3b, 0x61, 0x47, 0x09, 0x3e, 0xf1, 0x52,
    0x3d, 0x3e, 0x95, 0x46, 0x37, 0x3c, 0xe1, 0x8b, 0x93, 0xba,
    0x4c, 0x14, 0x82, 0x3d, 0xbd, 0xdd, 0x4e, 0xbd, 0x12, 0x4e,
    0x98, 0xbc, 0x93, 0xf1, 0x2c, 0xbe, 0x01, 0x91, 0xd8, 0xbc,
    0x6e, 0xc1, 0x82, 0xbd, 0xcc, 0x99, 0x2a, 0x3e, 0x0f, 0x43,
    0x10, 0x3e, 0x6c, 0x77, 0x4b, 0x3d, 0x40, 0xae, 0x06, 0x3e,
    0x56, 0x85, 0xbe, 0x3c, 0x2e, 0xcd, 0x61, 0x3d, 0xfc, 0xdf,
    0x16, 0x3e, 0x60, 0x6b, 0xca, 0x3d, 0x8e, 0x58, 0xf1, 0x3d,
    0xbc, 0x50, 0x0a, 0xbe, 0x32, 0xb5, 0x2e, 0xbd, 0x51, 0xef,
    0xf7, 0xbd, 0x96, 0xb7, 0xb6, 0x3c, 0x9e, 0xb4, 0xa7, 0x3d,
    0x60, 0x27, 0x91, 0xbd, 0x0b, 0xbf, 0x71, 0x3d, 0x1b, 0xb2,
    0x26, 0x3d, 0xd2, 0xe3, 0xe0, 0x3d, 0xe7, 0x2a, 0xa7, 0x3d,
    0xd4, 0x5a, 0xa7, 0x3d, 0x45, 0xcb, 0x1f, 0x3d, 0xfe, 0x0a,
    0x13, 0x3d, 0x48, 0xb1, 0x10, 0xbd, 0xf7, 0xb5, 0xae, 0xbd,
    0x15, 0x1e, 0x1a, 0x3e, 0xc3, 0x6f, 0x2c, 0xbd, 0xa7, 0xc3,
    0x08, 0x3e, 0x36, 0x7d, 0x0d, 0x3c, 0x2c, 0xb2, 0x08, 0x3d,
    0x5c, 0x65, 0x0e, 0xbd, 0x6d, 0x62, 0x80, 0x3d, 0xa8, 0x1d,
    0xaa, 0x3d, 0xf9, 0x11, 0xbf, 0xbd, 0x63, 0x34, 0x49, 0x3d,
    0xdb, 0x9e, 0x8c, 0x3c, 0xe1, 0x4f, 0xfe, 0x3c, 0x1d, 0xd3,
    0xf7, 0x3d, 0x00, 0x3e, 0x32, 0xbe, 0x2c, 0x80, 0xb2, 0x3d,
    0xba, 0xea, 0xf2, 0xbc, 0xe0, 0x82, 0x6e, 0x3d, 0xc3, 0x81,
    0x12, 0x3e, 0x00, 0xc9, 0xb0, 0xbc, 0x12, 0x6e, 0xf0, 0x3d,
    0x7f, 0x86, 0x9c, 0x3d, 0xa5, 0x37, 0x7c, 0x3b, 0x65, 0xf9,
    0x0f, 0xbd, 0x06, 0x38, 0x1f, 0xbc, 0xa6, 0x16, 0x64, 0xbd,
    0x38, 0x1a, 0xca, 0xbd, 0x1f, 0x2d, 0x05, 0x3e, 0xa3, 0x91,
    0xf7, 0x3d, 0x8f, 0xc9, 0x26, 0xbd, 0x73, 0xd7, 0x9c, 0xbc,
    0x4d, 0xea, 0xd5, 0x3b, 0xce, 0xea, 0x0a, 0xbe, 0x79, 0xd8,
    0xa4, 0x3d, 0xd7, 0xf8, 0x75, 0xba, 0xe8, 0x02, 0x19, 0xbe,
    0x53, 0x0c, 0xef, 0x3c, 0x71, 0x3e, 0x83, 0xbe, 0x5f, 0xce,
    0xc8, 0xbd, 0x4a, 0x58, 0x7e, 0x3d, 0x45, 0xed, 0xda, 0x3d,
    0xe1, 0x02, 0x2e, 0xbe, 0x47, 0x11, 0xba, 0x3d, 0x57, 0x01,
    0x60, 0x3c, 0x50, 0x33, 0xbb, 0x3c, 0x71, 0xcc, 0xb1, 0xbc,
    0xbf, 0x92, 0xe6, 0xbd, 0x0b, 0x0f, 0x9e, 0xbd, 0xfa, 0xf8,
    0x3d, 0x3d, 0xf4, 0x07, 0xee, 0x3d, 0xab, 0x6a, 0x73, 0x3d,
    0x76, 0x25, 0xe0, 0xbd, 0x29, 0x00, 0x35, 0x3e, 0xfe, 0x91,
    0x9d, 0x3d, 0x91, 0x87, 0x27, 0xbe, 0xee, 0x8c, 0xe1, 0x3b,
    0xe5, 0x8e, 0x2c, 0x3e, 0x90, 0x7f, 0x5f, 0xbc, 0xfb, 0x31,
    0xb4, 0xbd, 0xd7, 0xf4, 0xf8, 0x3d, 0x66, 0x84, 0x83, 0xbd,
    0x54, 0x5c, 0x6c, 0xbd, 0x09, 0x64, 0x54, 0x3b, 0x4d, 0x75,
    0xe2, 0xbd, 0xdb, 0x1e, 0x9a, 0xbd, 0x82, 0x70, 0xaa, 0xbd,
    0xb6, 0x9c, 0x76, 0x3b, 0x97, 0x80, 0x9d, 0x3c, 0x1c, 0xcd,
    0xb7, 0x3d, 0x45, 0x9d, 0x3c, 0xba, 0xf9, 0x0f, 0x01, 0xbd,
    0xf2, 0x59, 0x06, 0xbe, 0xfc, 0x9a, 0x18, 0xbe, 0x7b, 0x0b,
    0x39, 0x3e, 0x59, 0x22, 0xfb, 0x3d, 0x4d, 0xeb, 0x8a, 0x3e,
    0xe5, 0xa3, 0x10, 0x3b, 0x2c, 0x8f, 0x61, 0x3e, 0xd7, 0x44,
    0x9b, 0xbd, 0xe1, 0x4e, 0x10, 0x3e, 0xe3, 0x49, 0xaf, 0x3c,
    0x0f, 0x28, 0xcb, 0x3d, 0x52, 0x35, 0x7c, 0xbd, 0x41, 0xd4,
    0x20, 0xbd, 0x26, 0x88, 0xa5, 0x3d, 0x51, 0x3c, 0x85, 0x3d,
    0xc3, 0xc4, 0x07, 0x3d, 0x48, 0x4f, 0xc3, 0x3d, 0x6b, 0xcb,
    0xe2, 0x3c, 0x83, 0xad, 0x8c, 0x3c, 0x17, 0x04, 0x38, 0x3d,
    0x0e, 0x58, 0x9d, 0xbb, 0x72, 0x80, 0xdf, 0x3c, 0x76, 0xe7,
    0xb0, 0x3d, 0x09, 0x6d, 0x02, 0x3e, 0x83, 0x3c, 0x21, 0xbe,
    0x37, 0x58, 0xe7, 0x3b, 0x85, 0xc9, 0xbc, 0x3d, 0xd2, 0x21,
    0x87, 0x3d, 0xd5, 0xa5, 0xcd, 0x3d, 0x27, 0x12, 0x9a, 0x3d,
    0x1b, 0x59, 0x45, 0x3d, 0x3b, 0xe9, 0x14, 0xbe, 0xc8, 0xf0,
    0x4b, 0x3c, 0x68, 0x73, 0x08, 0xbd, 0x9b, 0x46, 0xd6, 0x3d,
    0xa8, 0xa4, 0xbb, 0x3c, 0x25, 0x60, 0x1c, 0xbd, 0x60, 0x9e,
    0x9e, 0xbd, 0x93, 0xcf, 0x74, 0xbc, 0x14, 0xb8, 0xe9, 0x3c,
    0xa8, 0x7b, 0x4f, 0x3e, 0xa2, 0x32, 0x3b, 0x3e, 0x25, 0x62,
    0x25, 0xbd, 0x82, 0xed, 0xb4, 0x3c, 0x45, 0x2e, 0xf2, 0xba,
    0x2f, 0x00, 0xaf, 0x3c, 0x1d, 0xa2, 0x7e, 0xbd, 0xe0, 0x9c,
    0x43, 0xbe, 0x4b, 0x4f, 0x97, 0x3d, 0xed, 0xbd, 0x3a, 0x3d,
    0xb4, 0xdb, 0x45, 0x3d, 0x9d, 0x3c, 0x1e, 0x3e, 0xb5, 0xf8,
    0x70, 0xbd, 0x5a, 0xa0, 0xfe, 0x3d, 0xb9, 0xff, 0x5e, 0x3d,
    0x38, 0xa8, 0x7b, 0xbd, 0x54, 0x29, 0x11, 0x3d, 0xad, 0xfe,
    0x12, 0xbe, 0xdb, 0x3c, 0x80, 0x3d, 0xf0, 0x4a, 0x02, 0xbe,
    0x97, 0x11, 0xa5, 0xbd, 0xa1, 0x7a, 0x00, 0x3d, 0xe4, 0x4c,
    0xda, 0xbd, 0x32, 0xb1, 0xe3, 0xbd, 0x4e, 0xb8, 0xef, 0x3d,
    0x0e, 0xf9, 0xda, 0xbd, 0x53, 0xbc, 0x6b, 0x3d, 0xd9, 0xd4,
    0x07, 0xbc, 0xc5, 0x78, 0x7a, 0xbc, 0x3a, 0x10, 0x37, 0x3e,
    0xf1, 0xc1, 0xd7, 0xbd, 0x30, 0x67, 0xc5, 0x3d, 0x0b, 0x7e,
    0x52, 0xbd, 0xc0, 0xf3, 0x50, 0xbe, 0x7d, 0x0e, 0xa1, 0xbe,
    0x01, 0x6b, 0x19, 0xbe, 0x2a, 0xf3, 0xfa, 0x3d, 0x12, 0x89,
    0x2a, 0xbd, 0xd4, 0x52, 0x05, 0x3e, 0x8c, 0x79, 0xbe, 0xbc,
    0x63, 0x0f, 0xf6, 0x3c, 0xfb, 0xe0, 0xf9, 0xbd, 0x97, 0x58,
    0xef, 0x3d, 0xe5, 0x46, 0x03, 0x3d, 0xa3, 0xbf, 0x9b, 0x3d,
    0x0f, 0xbd, 0x4f, 0x3b, 0x6e, 0x50, 0x05, 0xbe, 0xdd, 0xaa,
    0xa8, 0xbd, 0xdc, 0x82, 0xe9, 0x3d, 0x43, 0x88, 0xdc, 0xbd,
    0x75, 0x75, 0x7b, 0x3d, 0xfa, 0xdc, 0xb7, 0xbd, 0x92, 0x9c,
    0x0b, 0xbd, 0xfa, 0x64, 0x38, 0xbd, 0x81, 0xce, 0x82, 0xbc,
    0xe3, 0x83, 0xa4, 0x3d, 0x74, 0x08, 0xfe, 0xbb, 0xab, 0x9e,
    0xe5, 0x3c, 0xe2, 0x45, 0x12, 0xbe, 0x37, 0xc7, 0x2c, 0x3c,
    0x54, 0xd2, 0xcb, 0x3c, 0xcc, 0x58, 0xb5, 0x3d, 0x27, 0x1e,
    0xde, 0x3c, 0xfc, 0x2f, 0x10, 0xbe, 0x7a, 0x33, 0xa6, 0x3d,
    0x4e, 0xcb, 0xf6, 0xbd, 0x09, 0xb8, 0x0c, 0x3d, 0x38, 0x36,
    0x48, 0xbe, 0x3d, 0x7c, 0x65, 0x3b, 0x92, 0x8c, 0x90, 0x3a,
    0xf5, 0x70, 0x0f, 0xbe, 0xe2, 0xe2, 0x07, 0xbe, 0xbb, 0x7d,
    0xe6, 0x3d, 0xcb, 0xce, 0x3d, 0xbe, 0x9f, 0x9b, 0xaa, 0x3d,
    0x05, 0x1e, 0x77, 0x3d, 0xa2, 0x4d, 0x92, 0xba, 0x01, 0x25,
    0x27, 0x3d, 0x66, 0x29, 0xf7, 0xbc, 0x5f, 0x16, 0xa2, 0xbd,
    0xf8, 0x75, 0x86, 0x3d, 0xfc, 0x0f, 0x14, 0xbe, 0x34, 0x1f,
    0x9a, 0xbe, 0x34, 0xf8, 0xeb, 0x3d, 0x93, 0x65, 0x48, 0x3d,
    0xa5, 0x98, 0x01, 0x3d, 0x5f, 0xfe, 0x67, 0x3d, 0x81, 0xd2,
    0xd5, 0x3c, 0x6c, 0x01, 0x19, 0x3e, 0xf9, 0x09, 0x1c, 0xbe,
    0xfe, 0x3c, 0xde, 0x3d, 0x09, 0x0e, 0xbf, 0xbd, 0x70, 0x1f,
    0x23, 0x3d, 0x1d, 0xca, 0xc5, 0x3d, 0x82, 0xd1, 0x24, 0xbc,
    0xf8, 0x22, 0x63, 0x38, 0x6c, 0x13, 0x6b, 0xbd, 0x64, 0x62,
    0xeb, 0xbd, 0x5e, 0x34, 0x11, 0xbe, 0xc2, 0x53, 0x45, 0x3d,
    0x8a, 0xc0, 0x2b, 0x3e, 0x06, 0x70, 0x05, 0x3e, 0x44, 0xb3,
    0xd2, 0xb8, 0x1d, 0x50, 0xd4, 0xbb, 0xea, 0x1f, 0x8b, 0x3d,
    0x60, 0x58, 0x89, 0xbc, 0x53, 0x04, 0x64, 0xbe, 0xd8, 0x64,
    0xbf, 0xbc, 0x6b, 0x0e, 0x4f, 0xbd, 0xfa, 0x22, 0xb8, 0xba,
    0x7d, 0x48, 0xc0, 0x3d, 0x8a, 0xaf, 0xf7, 0xbd, 0x1a, 0x97,
    0xb2, 0x3c, 0x4d, 0x21, 0x2f, 0xbe, 0xe8, 0xb4, 0xd5, 0x3d,
    0xac, 0x0c, 0x35, 0x3d, 0xe7, 0x0b, 0x86, 0xbd, 0x49, 0xaa,
    0xfd, 0x3d, 0xdb, 0x7a, 0x11, 0xbe, 0xc1, 0xc4, 0xbc, 0x3c,
    0xd2, 0xfb, 0xb2, 0x3c, 0x79, 0xc3, 0x64, 0x3b, 0x8f, 0xd0,
    0xe2, 0x3d, 0x81, 0x52, 0xc2, 0xbd, 0x61, 0xbc, 0x06, 0x3e,
    0xde, 0xda, 0x81, 0xbd, 0xfd, 0xbb, 0xb3, 0xbd, 0x33, 0xf2,
    0x13, 0x3d, 0xa6, 0xcb, 0xb2, 0xbd, 0x43, 0x75, 0xc6, 0xbc,
    0xda, 0x3a, 0x23, 0xbe, 0xa4, 0x57, 0x17, 0x3d, 0xc9, 0xf5,
    0x9d, 0x3d, 0xf7, 0xda, 0x48, 0xbc, 0xf4, 0x57, 0x9f, 0x3d,
    0x33, 0xbc, 0xc1, 0xbd, 0x71, 0xb7, 0xfd, 0xbc, 0x56, 0x00,
    0xce, 0x3d, 0x0d, 0x6b, 0xd7, 0x3c, 0x75, 0x9f, 0x89, 0xbd,
    0x09, 0x85, 0x81, 0xbc, 0xe9, 0xb2, 0x02, 0xbe, 0xde, 0x4b,
    0x25, 0xbe, 0x67, 0xca, 0x1c, 0x3e, 0x16, 0xd8, 0xe2, 0xba,
    0xb4, 0xa9, 0x1b, 0xbd, 0xe0, 0xae, 0xf8, 0xbd, 0x7f, 0xae,
    0xce, 0x3d, 0x72, 0x75, 0x1c, 0x3e, 0x91, 0x90, 0x91, 0x3d,
    0x04, 0x2f, 0xb0, 0xbd, 0xab, 0xf5, 0x31, 0xbd, 0xce, 0xfb,
    0x4c, 0xbd, 0x4d, 0xe3, 0x38, 0xbd, 0xfe, 0xcf, 0x0b, 0xbe,
    0xfc, 0x6d, 0xbf, 0x3d, 0x79, 0xea, 0x83, 0xbd, 0x3e, 0x63,
    0xd5, 0x3c, 0x37, 0x2f, 0xdf, 0x3b, 0xaf, 0x06, 0x3e, 0xbe,
    0xaa, 0x8d, 0x43, 0x3d, 0x8c, 0xc8, 0x0a, 0xbe, 0x74, 0xcb,
    0xb7, 0xbb, 0x05, 0x0f, 0x4b, 0xbc, 0x3e, 0xb7, 0x86, 0x3d,
    0xcd, 0xe0, 0x3c, 0xbd, 0xcf, 0x3a, 0x23, 0xbd, 0x22, 0x93,
    0xcc, 0x3c, 0x9b, 0x71, 0xf9, 0xbc, 0x2d, 0x01, 0x8a, 0xbd,
    0xd6, 0xf5, 0x96, 0x3d, 0xdc, 0x23, 0x94, 0x3c, 0x57, 0x59,
    0x75, 0x3d, 0x88, 0x0f, 0xcb, 0xbb, 0xf0, 0x38, 0x12, 0xbe,
    0x18, 0xd0, 0x47, 0x3d, 0x76, 0x9e, 0x9b, 0x3d, 0xa7, 0x56,
    0x00, 0xbe, 0xc5, 0x46, 0x37, 0xbe, 0xf8, 0x06, 0xe0, 0xbd,
    0x33, 0x74, 0xef, 0x3c, 0x87, 0x7c, 0x41, 0x3d, 0x1b, 0xc6,
    0xfb, 0x3c, 0x64, 0xb8, 0x0c, 0x3d, 0x10, 0x98, 0x8c, 0x3c,
    0x98, 0xcb, 0x26, 0xbe, 0xbc, 0xa9, 0x09, 0x3c, 0xbd, 0xaf,
    0x04, 0x3c, 0x07, 0xe3, 0xf6, 0xbb, 0xef, 0x83, 0x84, 0x3d,
    0xb3, 0xd6, 0xa9, 0xbd, 0x49, 0x30, 0x62, 0x3d, 0x9c, 0xb4,
    0x60, 0x3d, 0x70, 0x01, 0x01, 0xbe, 0xd1, 0x91, 0x2e, 0xbd,
    0xb8, 0xe3, 0xbf, 0x3d, 0x72, 0xf7, 0x0a, 0x3e, 0x9b, 0x8f,
    0x67, 0xbc, 0x26, 0xbe, 0x89, 0x3d, 0x41, 0x90, 0x8b, 0xbd,
    0xa8, 0xd9, 0x55, 0x3a, 0xb9, 0xe4, 0x25, 0xbe, 0x9e, 0x43,
    0x1f, 0xbe, 0x8b, 0x37, 0x21, 0xbd, 0xd3, 0x20, 0xda, 0x3d,
    0x6c, 0x22, 0xd7, 0x3d, 0x58, 0x6f, 0x9c, 0x3c, 0xed, 0xe5,
    0x21, 0xbe, 0x7a, 0x59, 0x01, 0x3e, 0x77, 0x5b, 0xe0, 0x3d,
    0x3e, 0x9a, 0x6f, 0xbd, 0x05, 0xec, 0x6e, 0xbe, 0x49, 0x76,
    0xe6, 0x3d, 0xd1, 0xfc, 0x2c, 0x3c, 0xc0, 0xcc, 0x67, 0xbe,
    0xb1, 0xce, 0xa3, 0x3d, 0x6d, 0xc1, 0x6f, 0xbd, 0xdd, 0x81,
    0x6c, 0xbe, 0xf2, 0xbf, 0x21, 0xbc, 0xad, 0x94, 0x10, 0x3e,
    0xe1, 0xda, 0x46, 0x3e, 0x98, 0x49, 0x04, 0xbd, 0x83, 0x79,
    0xc6, 0x3d, 0x19, 0x18, 0x91, 0x3d, 0x2f, 0x49, 0x5b, 0xbc,
    0xe2, 0xe3, 0x5c, 0xbe, 0x23, 0x63, 0x74, 0xbe, 0xf4, 0x26,
    0x3e, 0xbd, 0x4c, 0x61, 0xec, 0xbc, 0x47, 0xe2, 0xd2, 0x3d,
    0x48, 0xc9, 0x4a, 0xbc, 0xfb, 0x60, 0x3c, 0xbe, 0x47, 0x6d,
    0x50, 0x3e, 0x12, 0xdf, 0x78, 0xbe, 0x93, 0xad, 0xe1, 0x3d,
    0x16, 0xb6, 0x04, 0xbe, 0x31, 0xd0, 0x94, 0x3b, 0xe1, 0xd7,
    0x5f, 0x3c, 0xbe, 0x43, 0xf8, 0xbc, 0xdf, 0xa4, 0x8e, 0x3d,
    0x16, 0x90, 0x1b, 0xbd, 0x1f, 0xf8, 0xfb, 0xbc, 0x13, 0x84,
    0xb2, 0xbc, 0x87, 0xb3, 0x91, 0xbd, 0x7c, 0x04, 0x5b, 0x3e,
    0x4b, 0x69, 0x48, 0xbc, 0x8b, 0x18, 0x2a, 0xbd, 0x64, 0xf6,
    0x21, 0x3d, 0x59, 0x95, 0xa5, 0xbd, 0x90, 0xd2, 0x3c, 0xbe,
    0xdd, 0xc3, 0x1b, 0xbe, 0x06, 0x38, 0x60, 0xbd, 0x3b, 0xc3,
    0xa3, 0x3c, 0xa1, 0xa1, 0x17, 0xbb, 0xa1, 0xf7, 0x7d, 0x3d,
    0x19, 0xae, 0xdb, 0xbd, 0xea, 0xf5, 0xdb, 0x3d, 0xe0, 0xb7,
    0x69, 0xbd, 0x28, 0xe4, 0x36, 0xbd, 0x7b, 0x52, 0x00, 0xbd,
    0x37, 0xa7, 0x8d, 0xbd, 0x38, 0xaf, 0x50, 0xbd, 0xd6, 0x16,
    0xe7, 0xbd, 0x45, 0xb6, 0x9e, 0xbd, 0xc5, 0x7f, 0x13, 0xbd,
    0xfd, 0x40, 0xee, 0x3c, 0xf3, 0x50, 0xf4, 0x3d, 0x83, 0xd2,
    0xc7, 0xbd, 0x15, 0x74, 0xab, 0x3d, 0x4c, 0xb7, 0x3e, 0x3d,
    0x0c, 0x6f, 0x90, 0x3d, 0x43, 0x8f, 0x4b, 0x3b, 0x71, 0xe7,
    0x08, 0xbd, 0xbe, 0x2e, 0x53, 0xbe, 0x38, 0xf7, 0x42, 0xbc,
    0x96, 0x3f, 0x0d, 0x3c, 0xa0, 0xa5, 0xac, 0x3d, 0xb7, 0xd1,
    0xf8, 0x3b, 0xb7, 0xdd, 0x02, 0x3e, 0x0d, 0x63, 0x10, 0x3e,
    0x86, 0xef, 0x2d, 0xbd, 0x75, 0xaf, 0x85, 0x3d, 0x47, 0x74,
    0x09, 0xbe, 0xd1, 0xed, 0x57, 0xbe, 0x9f, 0x6e, 0x3b, 0x3d,
    0x0d, 0x1b, 0x66, 0xbd, 0xc6, 0x77, 0x5c, 0xbe, 0x03, 0x3b,
    0xd6, 0x3d, 0x0c, 0x1d, 0xbb, 0xbd, 0x33, 0x3e, 0x43, 0xbe,
    0x9a, 0xe5, 0xd5, 0xbd, 0x2c, 0x9b, 0x87, 0x3b, 0x2a, 0xdc,
    0x41, 0x3e, 0x33, 0x58, 0x21, 0x3d, 0x33, 0xa4, 0x4d, 0xbc,
    0x50, 0xca, 0xc7, 0xbc, 0xc0, 0x1a, 0x6c, 0xbd, 0xe5, 0xfb,
    0x3a, 0xbe, 0xf9, 0x03, 0x0d, 0xbe, 0x2d, 0xcc, 0x0e, 0x3e,
    0xdc, 0xab, 0xfa, 0x3c, 0x8e, 0x63, 0x0d, 0xbd, 0xa8, 0xa3,
    0x73, 0x3d, 0x6a, 0xb9, 0x50, 0x3d, 0x96, 0xfe, 0xfc, 0x3d,
    0x41, 0xb3, 0x7a, 0xbe, 0xf1, 0x93, 0xd3, 0x3d, 0x2f, 0x25,
    0x0d, 0x3c, 0x6b, 0x31, 0x81, 0x3d, 0x69, 0x92, 0x12, 0xbd,
    0x4e, 0x0b, 0x40, 0xbe, 0x5b, 0xf1, 0xe3, 0xbc, 0x77, 0x45,
    0xc3, 0xbd, 0xa9, 0x40, 0xfe, 0xbd, 0xca, 0x21, 0x13, 0x3e,
    0x3e, 0x72, 0x1a, 0xba, 0x01, 0x81, 0xc0, 0x3c, 0x01, 0x3f,
    0x04, 0xbd, 0x22, 0x55, 0x97, 0x3c, 0x67, 0x1b, 0x11, 0x3e,
    0xd2, 0x18, 0xba, 0x3d, 0x00, 0x65, 0xe6, 0xbd, 0x79, 0x48,
    0x9d, 0xbe, 0xca, 0x12, 0x13, 0xbe, 0xc7, 0xcf, 0x02, 0x3e,
    0xe5, 0xef, 0x8e, 0xbd, 0xa2, 0x22, 0x09, 0x3e, 0xb9, 0xf8,
    0x79, 0xbd, 0xa8, 0x7c, 0x78, 0xbd, 0x2d, 0xfe, 0x60, 0xbe,
    0x93, 0x96, 0x96, 0x3d, 0xe4, 0x03, 0x99, 0xbd, 0xca, 0x20,
    0x0f, 0x3d, 0xd0, 0x94, 0x16, 0x3e, 0xf2, 0xbf, 0x15, 0xbe,
    0xc8, 0xae, 0x4b, 0x3d, 0xbb, 0xd8, 0x86, 0xbc, 0xf0, 0x1d,
    0x34, 0xbe, 0xc6, 0xe5, 0x91, 0xbc, 0xfe, 0xee, 0x39, 0x3d,
    0xa0, 0xdd, 0xc9, 0x3c, 0x10, 0x71, 0x01, 0x3d, 0x21, 0xcf,
    0x9a, 0x3d, 0xe5, 0x6d, 0xf3, 0x3b, 0xd5, 0x2a, 0xda, 0xbd,
    0x07, 0x62, 0x04, 0xbe, 0x86, 0xe3, 0x53, 0xbe, 0x01, 0x4a,
    0xbd, 0xbc, 0x10, 0x11, 0x14, 0x3e, 0x10, 0x10, 0x18, 0x3e,
    0xec, 0x01, 0xbf, 0xbc, 0xcc, 0x29, 0x42, 0x3d, 0x75, 0x7c,
    0x8c, 0x3d, 0xc2, 0xb4, 0xbf, 0x3d, 0x75, 0xca, 0xc0, 0xbd,
    0xe1, 0xc9, 0xfc, 0xbd, 0x17, 0x13, 0x3d, 0x3d, 0x29, 0xae,
    0x40, 0xbd, 0x8b, 0x4b, 0x8b, 0xbd, 0xed, 0x6c, 0x61, 0xbc,
    0xed, 0x7e, 0xd7, 0xbd, 0xef, 0x17, 0xde, 0xbd, 0x2b, 0x76,
    0xc6, 0xbc, 0x4d, 0xec, 0x2d, 0x3d, 0xd9, 0x26, 0x51, 0x3e,
    0x41, 0x64, 0x0c, 0xbd, 0x9d, 0x94, 0xff, 0x3b, 0xc9, 0xdf,
    0xef, 0x3d, 0xcb, 0x6d, 0x9a, 0xbd, 0x84, 0x56, 0x82, 0xbe,
    0xfc, 0x60, 0x96, 0xbd, 0x51, 0x21, 0x04, 0xbe, 0xf6, 0xec,
    0x10, 0x3e, 0x88, 0x62, 0x00, 0x3e, 0xec, 0x62, 0x44, 0x3d,
    0x18, 0x98, 0x3e, 0xbe, 0x0b, 0x82, 0x40, 0x3e, 0x9c, 0x0a,
    0x04, 0xbe, 0x9e, 0x9f, 0x8a, 0xbc, 0x0b, 0x2e, 0x33, 0xbd,
    0xa7, 0x96, 0xc2, 0xbd, 0x48, 0x94, 0xc4, 0xbb, 0x76, 0x53,
    0x0c, 0xba, 0xb1, 0x60, 0x90, 0xbd, 0xf0, 0x30, 0x36, 0x3e,
    0x87, 0xba, 0x2f, 0xbe, 0xb6, 0x39, 0xce, 0xbc, 0xf3, 0xb5,
    0x1a, 0x3d, 0xbc, 0xf9, 0x9f, 0x3a, 0x83, 0xb9, 0x83, 0x3d,
    0x52, 0x69, 0x0a, 0xbe, 0x3f, 0x5a, 0x9a, 0xbd, 0x65, 0x0a,
    0x6b, 0x3d, 0x03, 0x7d, 0x2f, 0xbe, 0xae, 0xac, 0x2f, 0xbe,
    0x48, 0xc5, 0x8f, 0x3c, 0x47, 0x66, 0x0a, 0x3e, 0x12, 0x98,
    0x15, 0xbb, 0x13, 0x8b, 0xb0, 0x3a, 0x12, 0x2f, 0x34, 0x3c,
    0x6e, 0x4a, 0x94, 0x3d, 0x46, 0x4b, 0xf3, 0xbd, 0xce, 0x68,
    0x9e, 0x3b, 0x2c, 0x88, 0x13, 0xbe, 0xfe, 0xd4, 0x92, 0xbd,
    0x11, 0xd1, 0x3f, 0xbd, 0xe8, 0xc9, 0x15, 0xbd, 0xe2, 0xbf,
    0x71, 0x3d, 0xb1, 0x4e, 0x3a, 0x3d, 0x14, 0xa4, 0xa9, 0xbd,
    0x80, 0x6e, 0x97, 0x3c, 0x5b, 0x15, 0x1e, 0xbc, 0xa2, 0xa6,
    0xdd, 0x3c, 0x10, 0x26, 0x03, 0x3e, 0x8a, 0x9e, 0x6d, 0xbd,
    0x5a, 0xc8, 0xc6, 0x3d, 0x03, 0x03, 0xc5, 0x3d, 0x4a, 0xee,
    0x64, 0xbe, 0x24, 0xfe, 0xc7, 0xbc, 0x7e, 0x00, 0x68, 0xbd,
    0x79, 0x2f, 0xe7, 0x3d, 0xf7, 0x38, 0x98, 0x3d, 0xef, 0x49,
    0x08, 0x3d, 0xb7, 0xb4, 0xee, 0xbb, 0x31, 0x38, 0xd9, 0x3b,
    0x61, 0xbc, 0x44, 0xbd, 0xfd, 0xe9, 0x0c, 0xbd, 0xfe, 0x8c,
    0x1b, 0xbe, 0xe0, 0xe2, 0x76, 0xbc, 0x5e, 0x16, 0xcd, 0xbc,
    0x1e, 0x4d, 0xe8, 0xbd, 0xe7, 0x90, 0x50, 0x3d, 0xa9, 0xd6,
    0xe6, 0xbc, 0xa2, 0x14, 0x38, 0xbe, 0xbd, 0x0f, 0x93, 0x3b,
    0x29, 0x88, 0x67, 0x3d, 0xb0, 0x6a, 0xd2, 0x3d, 0x28, 0x70,
    0x77, 0xbd, 0xf7, 0xca, 0xf5, 0xb9, 0x3b, 0x08, 0xc8, 0xbd,
    0x0f, 0xe3, 0x01, 0x3e, 0x11, 0xe8, 0x89, 0xbe, 0x2d, 0x9b,
    0x0e, 0xbe, 0x3d, 0x48, 0x1d, 0x3d, 0xdd, 0xb6, 0x99, 0x3d,
    0xd5, 0x41, 0x67, 0xbd, 0x84, 0xdf, 0xbd, 0xbd, 0x55, 0x1a,
    0xd9, 0x3d, 0xbc, 0xea, 0x2f, 0x3d, 0xdc, 0x09, 0xd3, 0xbd,
    0xad, 0x4b, 0x8c, 0x3c, 0x94, 0xba, 0x6e, 0xbd, 0x49, 0x72,
    0xbb, 0xbd, 0x5c, 0x6a, 0xab, 0x3d, 0xff, 0x78, 0x8a, 0xbd,
    0x1f, 0x91, 0xa0, 0x3e, 0x29, 0x3b, 0xaf, 0xbc, 0x48, 0xb0,
    0xd5, 0xbd, 0xd1, 0xde, 0xd5, 0x39, 0xa3, 0x8a, 0xc3, 0xbd,
    0xbc, 0xb6, 0x63, 0xbc, 0x93, 0x14, 0xb4, 0x3d, 0x17, 0x0c,
    0xac, 0xbb, 0x84, 0x1f, 0x5e, 0x3d, 0x4c, 0x7f, 0xaf, 0x3d,
    0xfd, 0xf3, 0x3e, 0xbe, 0x27, 0x96, 0x54, 0xbe, 0xe2, 0x11,
    0xa5, 0x3b, 0x8d, 0xb2, 0xef, 0xbb, 0xfb, 0xde, 0xf3, 0xbd,
    0x68, 0xc4, 0xb2, 0xbd, 0x20, 0xee, 0x65, 0x3d, 0x64, 0xe3,
    0x3b, 0x3c, 0x48, 0x83, 0x6c, 0xbe, 0xf7, 0x02, 0xec, 0x3d,
    0x3f, 0x86, 0x29, 0xbe, 0x43, 0xb7, 0xa6, 0xbd, 0x0e, 0x74,
    0xa9, 0x3d, 0x86, 0x00, 0xdd, 0xbc, 0xfb, 0xd1, 0x84, 0x3e,
    0xaa, 0xde, 0xd3, 0x3c, 0xf4, 0x0e, 0x41, 0x3d, 0xca, 0x3c,
    0xd6, 0x3d, 0x15, 0x64, 0x04, 0xbe, 0x89, 0xfc, 0x2c, 0xbd,
    0x1e, 0x04, 0x11, 0xbe, 0x5a, 0x7b, 0xe1, 0x3c, 0x82, 0x5a,
    0x36, 0x3c, 0x3b, 0xfa, 0x85, 0x3c, 0xbd, 0xe8, 0x20, 0x3a,
    0x7f, 0x7c, 0x4c, 0xbe, 0xf9, 0x18, 0x62, 0xbd, 0x66, 0x47,
    0xa1, 0xbd, 0xa1, 0x9f, 0xa2, 0x3d, 0xae, 0x98, 0xce, 0xbd,
    0x07, 0x25, 0xc4, 0x3d, 0x95, 0x33, 0x2b, 0x3d, 0x50, 0x57,
    0x84, 0xbd, 0x6c, 0xe2, 0xb2, 0xbd, 0x75, 0xbf, 0x16, 0xbe,
    0xb9, 0x95, 0x61, 0x3d, 0x9b, 0x39, 0xa5, 0x3d, 0x5d, 0x32,
    0x03, 0xbe, 0xe5, 0xbf, 0x32, 0x3e, 0x25, 0xaf, 0xf0, 0x3b,
    0x6f, 0xc1, 0x7c, 0xbe, 0x13, 0x34, 0xfd, 0xbc, 0x8a, 0xa5,
    0xa8, 0x3c, 0x01, 0xb5, 0x12, 0xbd, 0x86, 0x9f, 0xb0, 0xbd,
    0x76, 0xaa, 0x30, 0xbe, 0x75, 0x3c, 0x13, 0x3d, 0x1c, 0xfc,
    0x92, 0x3b, 0x06, 0xce, 0x7a, 0xbd, 0xe3, 0xf6, 0xb8, 0xbd,
    0x73, 0x5a, 0x13, 0xbe, 0x97, 0x9b, 0x60, 0xbc, 0xfe, 0xf7,
    0x39, 0xbe, 0x4a, 0xae, 0xab, 0xbd, 0x57, 0xec, 0xd1, 0x3c,
    0xd0, 0x64, 0x31, 0x3e, 0x74, 0x3b, 0x19, 0xbe, 0x42, 0x0c,
    0xb9, 0xbd, 0x33, 0xeb, 0x9a, 0xbd, 0x1f, 0x0f, 0x07, 0xbe,
    0x7e, 0x96, 0x2d, 0x3e, 0xfc, 0x50, 0x17, 0xbe, 0x6f, 0x9b,
    0x8c, 0x3e, 0x44, 0xca, 0xd6, 0x3c, 0xc5, 0xa6, 0xa4, 0xbd,
    0x1e, 0x1d, 0x4f, 0xbd, 0xf7, 0x51, 0xf6, 0xbd, 0xaa, 0xdb,
    0x26, 0x3c, 0x0e, 0x5b, 0xd4, 0xbc, 0x1d, 0x5f, 0xcf, 0xbc,
    0xfa, 0x2a, 0x62, 0x3d, 0x87, 0xc5, 0x89, 0x3e, 0x26, 0x99,
    0x42, 0xbd, 0xb3, 0xfa, 0x7a, 0xbe, 0xec, 0xca, 0xc8, 0x3c,
    0x05, 0xd1, 0xf4, 0xbd, 0xff, 0x3c, 0x68, 0xbd, 0x2b, 0xb8,
    0x19, 0xbe, 0x09, 0xf2, 0x5d, 0x3e, 0x5d, 0xce, 0x4e, 0xbd,
    0xd5, 0xc8, 0x78, 0xbc, 0x2e, 0xb3, 0x38, 0x3d, 0x66, 0xa7,
    0xad, 0xbd, 0x1d, 0x0d, 0x85, 0xbd, 0x42, 0xb2, 0xa8, 0x3d,
    0x38, 0x3a, 0xa7, 0x3c, 0x8e, 0x7b, 0x1c, 0x3e, 0x0b, 0xc9,
    0x82, 0xbd, 0x56, 0x9c, 0x9e, 0xbd, 0xd8, 0x28, 0xe3, 0xbd,
    0x39, 0x6d, 0x91, 0xbd, 0x0c, 0x39, 0xf0, 0x3d, 0x7d, 0xb0,
    0x9e, 0xba, 0x4d, 0x42, 0x58, 0xbc, 0xbe, 0x94, 0xe6, 0xbd,
    0xd7, 0x0f, 0x0f, 0x3e, 0x07, 0x4b, 0x35, 0xbd, 0x25, 0x61,
    0xe6, 0x3b, 0xbb, 0x02, 0x72, 0x3d, 0x83, 0x51, 0x06, 0xbd,
    0x00, 0xea, 0x5a, 0x3c, 0x9e, 0x9a, 0xc6, 0x3b, 0x8b, 0xb2,
    0xcd, 0x3d, 0xae, 0x08, 0x00, 0xbd, 0xeb, 0xd2, 0x05, 0x3e,
    0x5f, 0x6f, 0xfe, 0xbb, 0x09, 0xb0, 0xd9, 0xbd, 0x7d, 0x5f,
    0x93, 0x3d, 0x34, 0xc3, 0x1b, 0xbc, 0x17, 0x7b, 0xad, 0xbd,
    0x44, 0x52, 0x7a, 0x3d, 0x8d, 0x11, 0x16, 0xbd, 0x62, 0xcf,
    0x57, 0xbe, 0xa4, 0xcc, 0x6d, 0xbc, 0xa5, 0xfc, 0x1e, 0x3e,
    0xa0, 0x0f, 0x5a, 0x3c, 0x75, 0x3b, 0xb6, 0xbc, 0x3a, 0x8a,
    0xbe, 0x3d, 0x82, 0xdb, 0xe2, 0xbc, 0x18, 0xea, 0xc6, 0x3d,
    0x12, 0xf6, 0x19, 0xbe, 0x36, 0xc1, 0x75, 0xbe, 0x19, 0x69,
    0xa6, 0x3d, 0x41, 0x41, 0xc0, 0xbd, 0xa7, 0x73, 0x09, 0xbe,
    0x69, 0x84, 0x0f, 0xbd, 0xb2, 0x57, 0x01, 0xbd, 0x70, 0xb3,
    0x35, 0xbd, 0x2b, 0xa5, 0xd8, 0xbd, 0x58, 0x30, 0x8c, 0x3d,
    0x35, 0xd7, 0x04, 0xbe, 0x24, 0x41, 0xe1, 0x3c, 0xf4, 0x5f,
    0xd5, 0x3d, 0x6f, 0xdd, 0x29, 0xbd, 0x97, 0xb0, 0x74, 0x3e,
    0x1c, 0x54, 0x1b, 0x3e, 0x16, 0x5c, 0x06, 0xbd, 0xd9, 0x9a,
    0x84, 0xbd, 0x13, 0x1f, 0x2d, 0xbd, 0xcd, 0x8e, 0x08, 0xbd,
    0x55, 0x28, 0xba, 0x3c, 0xcf, 0xcf, 0xad, 0x3b, 0x03, 0x95,
    0x1d, 0x3e, 0x07, 0x84, 0xd0, 0xbc, 0xb5, 0xb8, 0xb4, 0xbd,
    0x9e, 0x56, 0xf7, 0xbd, 0xaa, 0xc3, 0x05, 0xbe, 0x24, 0x8d,
    0xc9, 0xbd, 0xa1, 0xef, 0x87, 0xbd, 0x04, 0xbb, 0xa2, 0xbd,
    0x76, 0x21, 0xe7, 0xbb, 0x97, 0x2c, 0x80, 0x3d, 0x23, 0x13,
    0x18, 0xbd, 0x3b, 0x34, 0xd3, 0x3d, 0xaf, 0x54, 0xb9, 0xbc,
    0x9c, 0x38, 0xbe, 0xbd, 0x45, 0x9d, 0x51, 0x3d, 0xca, 0x50,
    0x90, 0xbd, 0x38, 0x85, 0x86, 0x3d, 0x10, 0x17, 0x49, 0xbe,
    0x8a, 0x4c, 0xad, 0xbd, 0xc8, 0xfb, 0x91, 0x3d, 0x8c, 0xf2,
    0x70, 0xbc, 0xd4, 0x52, 0x01, 0x3e, 0xdd, 0xa2, 0x02, 0x3d,
    0xed, 0xc4, 0x40, 0xbd, 0x5a, 0x9b, 0x6b, 0x3d, 0xd6, 0x3a,
    0x91, 0x3d, 0xc5, 0x0d, 0x16, 0xbc, 0x56, 0xa1, 0xd0, 0xbd,
    0x34, 0x25, 0x94, 0xbc, 0xfb, 0x97, 0xc0, 0xbd, 0x7d, 0x74,
    0x71, 0xbd, 0x49, 0x57, 0x7d, 0x3c, 0x99, 0xc3, 0x3b, 0x3c,
    0x20, 0x09, 0xe0, 0x3c, 0xe9, 0x85, 0x14, 0xbd, 0x27, 0x60,
    0x1b, 0x3d, 0xf9, 0x01, 0x84, 0xbd, 0xf7, 0x4f, 0xaf, 0x3d,
    0x2e, 0x9a, 0x71, 0x3c, 0x66, 0x13, 0x16, 0xbe, 0x60, 0xbc,
    0x0e, 0x3e, 0x00, 0x5e, 0x17, 0xbe, 0x6c, 0x8e, 0x41, 0xbe,
    0x5d, 0xdb, 0x70, 0xbd, 0xf8, 0x5a, 0xab, 0x3d, 0xa0, 0xc8,
    0x13, 0x3e, 0x29, 0xcf, 0xd3, 0xbc, 0x9c, 0x33, 0x6a, 0xbb,
    0x1b, 0x74, 0xaf, 0xbd, 0xc2, 0xd9, 0x1b, 0x3e, 0xcb, 0x7d,
    0xf2, 0xbd, 0x69, 0xef, 0x06, 0xbe, 0x2d, 0xf5, 0xcd, 0x3c,
    0x6e, 0x8b, 0x21, 0x3d, 0x3b, 0x5d, 0x63, 0xbd, 0x00, 0x5c,
    0xcb, 0xbd, 0xb3, 0x47, 0xf9, 0x3c, 0x3c, 0x8d, 0x55, 0xbd,
    0x4e, 0x1c, 0xfd, 0x3e, 0xdd, 0x91, 0x53, 0x3d, 0x80, 0x21,
    0x99, 0xbe, 0x8a, 0x2a, 0x68, 0x3e, 0x46, 0xfc, 0x24, 0xbd,
    0xf0, 0x1f, 0xe2, 0x3e, 0x41, 0xb8, 0xbe, 0xbe, 0x71, 0xe5,
    0xda, 0xbd, 0x3f, 0x2d, 0xc9, 0xbe, 0x3a, 0x68, 0xe6, 0xbd,
    0xb6, 0x15, 0x82, 0xbc, 0xd6, 0xd7, 0xeb, 0x3e, 0x43, 0xa0,
    0xaf, 0x3e, 0xad, 0x26, 0xbe, 0x3e, 0x7b, 0xe7, 0xa9, 0xbe,
    0xd2, 0xf6, 0xdc, 0x3e, 0x5c, 0xbb, 0x16, 0x3f, 0x9a, 0xf1,
    0x0d, 0xbf, 0x1a, 0xb9, 0xd4, 0xbb, 0xb2, 0xc1, 0x29, 0x3e,
    0x5b, 0xe0, 0x8c, 0xbb, 0xa4, 0x13, 0xd3, 0xbe, 0x6a, 0x6b,
    0x16, 0xbf, 0xe4, 0x68, 0x15, 0xbf, 0x0f, 0xe2, 0x68, 0x3f,
    0x40, 0x12, 0x8f, 0x3e, 0xcd, 0xdc, 0x10, 0xbf, 0xc3, 0xeb,
    0x05, 0x3f, 0x1a, 0xa9, 0x49, 0xbe, 0x90, 0x8c, 0xee, 0x3d,
    0x53, 0x49, 0x84, 0xbf, 0x32, 0x56, 0x76, 0xbf, 0xf6, 0xed,
    0x93, 0xbf, 0x1b, 0x3a, 0xf7, 0xbe, 0xa1, 0xd4, 0x9d, 0xbe,
    0x8b, 0x5c, 0xef, 0x3d, 0x2f, 0x4b, 0xc5, 0x3e, 0x04, 0x6b,
    0xcb, 0xbd, 0x6c, 0x7e, 0xf7, 0xbe, 0x0b, 0xdb, 0xd1, 0x3e,
    0xe1, 0x36, 0xe9, 0x3e, 0x7a, 0x0b, 0xca, 0x3d, 0x34, 0xed,
    0x91, 0xbd, 0xb8, 0x11, 0xb1, 0x3d, 0xf8, 0xf1, 0x99, 0xbe,
    0x24, 0x75, 0x8a, 0x3e, 0xab, 0x0a, 0x1d, 0x3e, 0xe5, 0x4f,
    0x87, 0x3d, 0x44, 0x7b, 0xb4, 0x3e, 0x9d, 0x95, 0x02, 0xbf,
    0xdb, 0x71, 0x30, 0x3f, 0xfb, 0x66, 0x0f, 0xbf, 0x01, 0x59,
    0x87, 0xbe, 0x2a, 0x47, 0x73, 0x3d, 0x36, 0xda, 0xa5, 0xbc,
    0x83, 0x44, 0x14, 0xbf, 0x7f, 0x55, 0x1a, 0xbd, 0xba,
    0x00, 0x02, 0x3f, 0xe7, 0x5d, 0x5f, 0x3e, 0xe6, 0x91,
    0xbf, 0x3c, 0xda, 0x7c, 0x0c, 0xbf, 0x62, 0x53, 0x95,
    0xbe, 0x2f, 0x36, 0x0f, 0x3f, 0xd9, 0xe1, 0x0f, 0x3e
  };

  return AI_HANDLE_PTR(s_har_ign_weights);

}

